<unk>	0
<s>	0
</s>	0
<cls>	0
<sep>	0
<mask>	0
en	-0
er	-1
in	-2
▁a	-3
▁t	-4
▁d	-5
ch	-6
es	-7
on	-8
▁th	-9
un	-10
it	-11
is	-12
▁s	-13
▁w	-14
at	-15
ie	-16
or	-17
an	-18
▁the	-19
re	-20
▁b	-21
▁"	-22
▁o	-23
al	-24
ar	-25
▁in	-26
▁f	-27
ich	-28
."	-29
▁m	-30
te	-31
ion	-32
▁e	-33
▁an	-34
ur	-35
as	-36
le	-37
▁p	-38
▁c	-39
▁un	-40
▁h	-41
us	-42
ent	-43
ge	-44
▁S	-45
▁of	-46
ro	-47
▁n	-48
▁v	-49
ing	-50
ung	-51
▁and	-52
▁to	-53
ll	-54
ed	-55
▁die	-56
om	-57
▁der	-58
▁und	-59
▁A	-60
ig	-61
st	-62
ic	-63
▁E	-64
▁be	-65
▁is	-66
▁ein	-67
▁M	-68
ir	-69
▁z	-70
im	-71
▁P	-72
▁g	-73
▁B	-74
el	-75
ut	-76
ra	-77
ter	-78
em	-79
▁I	-80
il	-81
ten	-82
ol	-83
ation	-84
▁T	-85
der	-86
eit	-87
et	-88
▁l	-89
am	-90
▁D	-91
den	-92
▁re	-93
▁F	-94
▁G	-95
hr	-96
ies	-97
um	-98
op	-99
ct	-100
sch	-101
▁K	-102
ul	-103
▁k	-104
uf	-105
ber	-106
iv	-107
▁W	-108
▁R	-109
lich	-110
de	-111
▁C	-112
▁H	-113
▁for	-114
ab	-115
▁V	-116
ot	-117
ür	-118
isch	-119
icht	-120
ier	-121
gen	-122
▁das	-123
▁on	-124
▁zu	-125
ere	-126
▁den	-127
ly	-128
ess	-129
est	-130
▁that	-131
os	-132
▁L	-133
he	-134
and	-135
id	-136
ce	-137
omm	-138
ein	-139
ers	-140
▁pro	-141
▁al	-142
ow	-143
▁wh	-144
ach	-145
▁von	-146
▁r	-147
▁ge	-148
ort	-149
uch	-150
▁im	-151
▁st	-152
▁U	-153
ith	-154
▁y	-155
▁wir	-156
kt	-157
if	-158
▁con	-159
▁ist	-160
▁ver	-161
▁er	-162
ver	-163
▁with	-164
▁auf	-165
▁we	-166
▁für	-167
urop	-168
ay	-169
ill	-170
▁des	-171
▁N	-172
▁it	-173
ve	-174
▁mit	-175
▁are	-176
ad	-177
ts	-178
ind	-179
▁as	-180
ck	-181
▁so	-182
▁de	-183
▁1	-184
▁ne	-185
iss	-186
▁yo	-187
▁dies	-188
tr	-189
end	-190
▁Z	-191
af	-192
▁Europ	-193
pp	-194
ate	-195
ment	-196
▁(	-197
ik	-198
▁In	-199
▁se	-200
qu	-201
th	-202
ungen	-203
▁2	-204
la	-205
00	-206
ischen	-207
nen	-208
men	-209
▁St	-210
ib	-211
▁als	-212
▁eine	-213
▁Ver	-214
ak	-215
▁ex	-216
ne	-217
for	-218
▁dem	-219
▁this	-220
ity	-221
▁ha	-222
ant	-223
ien	-224
ive	-225
▁Un	-226
ial	-227
ah	-228
ist	-229
▁or	-230
▁j	-231
art	-232
▁nicht	-233
pe	-234
▁wer	-235
und	-236
ug	-237
▁co	-238
▁not	-239
ann	-240
über	-241
ste	-242
▁sich	-243
▁all	-244
▁le	-245
än	-246
▁An	-247
▁J	-248
▁-	-249
ub	-250
ff	-251
▁Sie	-252
▁werden	-253
tel	-254
we	-255
▁by	-256
▁Re	-257
▁have	-258
▁dass	-259
rom	-260
ag	-261
igen	-262
▁at	-263
igh	-264
ust	-265
▁es	-266
ass	-267
ens	-268
▁O	-269
▁aus	-270
ain	-271
all	-272
uld	-273
▁you	-274
up	-275
sp	-276
▁will	-277
▁ab	-278
od	-279
▁com	-280
▁uns	-281
iel	-282
ern	-283
▁The	-284
▁über	-285
aus	-286
▁i	-287
ure	-288
▁sh	-289
▁me	-290
ze	-291
age	-292
▁which	-293
ions	-294
ommiss	-295
ted	-296
▁was	-297
▁auch	-298
▁Pr	-299
ran	-300
ben	-301
lie	-302
hen	-303
▁from	-304
ahr	-305
hal	-306
▁Europe	-307
▁Sch	-308
ungs	-309
du	-310
och	-311
ard	-312
▁um	-313
ould	-314
▁sind	-315
▁us	-316
tern	-317
▁sch	-318
ident	-319
▁ch	-320
ommission	-321
▁Pro	-322
og	-323
▁pr	-324
▁ent	-325
fer	-326
▁vor	-327
▁wird	-328
uss	-329
▁has	-330
esch	-331
ue	-332
▁hab	-333
schaf	-334
ip	-335
iz	-336
mer	-337
ft	-338
▁Be	-339
port	-340
▁En	-341
▁wor	-342
ine	-343
gr	-344
ön	-345
ss	-346
ud	-347
▁res	-348
▁en	-349
ang	-350
llen	-351
oc	-352
ous	-353
ische	-354
ick	-355
ok	-356
▁wie	-357
▁da	-358
enn	-359
ast	-360
▁Par	-361
ät	-362
our	-363
▁he	-364
err	-365
urch	-366
▁can	-367
me	-368
▁man	-369
ise	-370
able	-371
etz	-372
The	-373
▁am	-374
form	-375
ige	-376
ire	-377
keit	-378
▁hat	-379
▁ich	-380
▁sein	-381
ap	-382
▁Er	-383
ost	-384
pr	-385
▁Ar	-386
▁oder	-387
ert	-388
ament	-389
▁our	-390
ore	-391
ia	-392
be	-393
otel	-394
cc	-395
erv	-396
▁comp	-397
▁zur	-398
▁""	-399
..	-400
ult	-401
beit	-402
▁also	-403
▁European	-404
ations	-405
▁We	-406
▁haben	-407
▁Aus	-408
▁Th	-409
▁sie	-410
ational	-411
ction	-412
ical	-413
heit	-414
ition	-415
▁ad	-416
ese	-417
lichen	-418
ish	-419
ice	-420
lo	-421
In	-422
ated	-423
are	-424
out	-425
dern	-426
▁bei	-427
▁do	-428
▁einer	-429
▁kön	-430
ome	-431
""	-432
olit	-433
rit	-434
se	-435
ru	-436
aten	-437
tz	-438
▁Mit	-439
hl	-440
ther	-441
ark	-442
ord	-443
fü	-444
ieren	-445
pt	-446
ect	-447
▁200	-448
▁unter	-449
▁Ge	-450
ün	-451
her	-452
▁nach	-453
▁qu	-454
ac	-455
schaft	-456
▁einen	-457
▁Parl	-458
ht	-459
ms	-460
Die	-461
▁part	-462
ign	-463
är	-464
tet	-465
iert	-466
▁your	-467
elt	-468
ight	-469
▁its	-470
▁Union	-471
vel	-472
ates	-473
oun	-474
▁Die	-475
▁Ein	-476
ake	-477
▁te	-478
tra	-479
ear	-480
▁reg	-481
ite	-482
▁durch	-483
▁gro	-484
ank	-485
ian	-486
au	-487
ger	-488
fen	-489
yste	-490
▁su	-491
▁sp	-492
▁but	-493
ember	-494
ary	-495
▁wur	-496
▁go	-497
▁ag	-498
▁ro	-499
▁Ber	-500
ide	-501
cial	-502
▁können	-503
oll	-504
▁there	-505
äs	-506
liche	-507
gt	-508
per	-509
con	-510
▁app	-511
ose	-512
▁Fra	-513
hre	-514
▁dis	-515
ör	-516
anz	-517
▁Vor	-518
▁ste	-519
▁dar	-520
cht	-521
▁EU	-522
▁tra	-523
▁war	-524
ual	-525
▁Commission	-526
chen	-527
▁Ab	-528
▁3	-529
cl	-530
ime	-531
▁would	-532
▁spe	-533
eren	-534
▁mö	-535
▁more	-536
ance	-537
▁19	-538
tw	-539
ame	-540
ile	-541
ail	-542
▁zum	-543
ov	-544
▁their	-545
▁einem	-546
ommen	-547
▁been	-548
mp	-549
▁–	-550
▁gen	-551
▁bes	-552
reat	-553
▁cont	-554
glich	-555
imm	-556
ute	-557
uß	-558
ase	-559
ong	-560
act	-561
▁Europä	-562
chte	-563
chn	-564
▁ar	-565
utz	-566
ild	-567
gra	-568
▁kann	-569
▁fin	-570
ück	-571
ble	-572
oss	-573
▁diese	-574
ack	-575
che	-576
▁one	-577
üss	-578
▁acc	-579
▁nur	-580
ont	-581
▁Te	-582
ugh	-583
one	-584
ents	-585
▁coun	-586
Th	-587
▁per	-588
▁Gr	-589
▁comm	-590
sten	-591
ges	-592
gan	-593
hn	-594
▁De	-595
▁should	-596
▁alle	-597
▁bet	-598
▁Le	-599
ahl	-600
▁Sp	-601
▁work	-602
▁pl	-603
wer	-604
lic	-605
▁Ch	-606
ution	-607
ike	-608
▁Unter	-609
▁new	-610
ierung	-611
geb	-612
eine	-613
▁up	-614
äsident	-615
▁cl	-616
ob	-617
▁Hotel	-618
ely	-619
zu	-620
▁,	-621
land	-622
auf	-623
hmen	-624
hren	-625
ree	-626
ktion	-627
▁dieser	-628
▁out	-629
av	-630
▁Jahr	-631
igkeit	-632
to	-633
▁ob	-634
rie	-635
ner	-636
ld	-637
olle	-638
▁jed	-639
ons	-640
reich	-641
pl	-642
▁Herr	-643
▁countr	-644
▁pre	-645
▁very	-646
ings	-647
▁ind	-648
▁must	-649
Ich	-650
▁inter	-651
▁Mr	-652
▁Pres	-653
▁Auf	-654
▁zw	-655
▁who	-656
▁Kommission	-657
bar	-658
▁other	-659
ke	-660
▁daß	-661
▁noch	-662
▁produ	-663
ities	-664
ähr	-665
formation	-666
▁ma	-667
▁ev	-668
▁they	-669
▁pe	-670
mit	-671
ink	-672
▁weit	-673
▁need	-674
gram	-675
ces	-676
pro	-677
wo	-678
ors	-679
▁wurde	-680
ater	-681
ments	-682
tell	-683
▁no	-684
▁Se	-685
▁ber	-686
schen	-687
▁mehr	-688
▁soll	-689
▁only	-690
▁intern	-691
▁year	-692
▁fe	-693
▁bec	-694
▁cons	-695
▁supp	-696
▁str	-697
ange	-698
▁like	-699
▁aber	-700
▁Präsident	-701
ple	-702
olog	-703
oin	-704
glie	-705
ystem	-706
▁time	-707
▁wenn	-708
▁about	-709
üssen	-710
▁polit	-711
teil	-712
▁Al	-713
▁It	-714
fe	-715
pos	-716
entr	-717
▁President	-718
ible	-719
▁any	-720
erm	-721
ious	-722
▁5	-723
assen	-724
ced	-725
gel	-726
uen	-727
leich	-728
▁prov	-729
▁ges	-730
▁sehr	-731
▁Wir	-732
velop	-733
▁müssen	-734
xt	-735
lin	-736
▁4	-737
▁tran	-738
ally	-739
ität	-740
enz	-741
ject	-742
▁unser	-743
▁Reg	-744
▁wo	-745
nah	-746
▁eff	-747
alt	-748
cess	-749
▁sow	-750
hnen	-751
iament	-752
▁ra	-753
ans	-754
ütz	-755
arbeit	-756
▁these	-757
onder	-758
ient	-759
▁Parlament	-760
ammen	-761
▁Arbeit	-762
rat	-763
▁rec	-764
▁serv	-765
▁sol	-766
▁For	-767
▁dire	-768
io	-769
▁off	-770
ular	-771
fore	-772
atz	-773
▁vie	-774
own	-775
fahr	-776
▁hin	-777
▁Mitglie	-778
ied	-779
ibt	-780
led	-781
ility	-782
▁import	-783
usammen	-784
Das	-785
Wir	-786
ative	-787
▁Member	-788
als	-789
▁diesem	-790
stit	-791
äl	-792
ph	-793
▁tr	-794
ider	-795
ring	-796
irst	-797
erson	-798
ople	-799
▁Men	-800
ause	-801
ures	-802
aaten	-803
ßen	-804
igt	-805
▁gegen	-806
▁develop	-807
▁if	-808
cy	-809
ism	-810
▁such	-811
halten	-812
▁la	-813
fol	-814
wend	-815
▁report	-816
fl	-817
▁ihre	-818
ook	-819
änd	-820
▁act	-821
ays	-822
▁Europäischen	-823
unden	-824
wn	-825
sche	-826
▁pol	-827
▁gr	-828
iger	-829
iven	-830
etzt	-831
▁bis	-832
▁sub	-833
▁Das	-834
ateg	-835
dition	-836
ks	-837
ific	-838
▁rel	-839
▁Ma	-840
▁ins	-841
▁over	-842
itu	-843
▁my	-844
wor	-845
ale	-846
▁Zeit	-847
nehmen	-848
Es	-849
▁into	-850
▁people	-851
▁were	-852
▁ihr	-853
▁Parliament	-854
führ	-855
kte	-856
▁20	-857
▁well	-858
str	-859
cre	-860
iden	-861
ices	-862
▁gem	-863
▁international	-864
erg	-865
▁best	-866
ken	-867
▁some	-868
),	-869
▁viel	-870
ement	-871
▁möchte	-872
bs	-873
▁what	-874
lung	-875
▁use	-876
cil	-877
acht	-878
enden	-879
▁inv	-880
▁.	-881
ou	-882
isten	-883
▁Y	-884
We	-885
conom	-886
Über	-887
ene	-888
▁dif	-889
▁States	-890
▁hier	-891
▁Mitglied	-892
▁mark	-893
arge	-894
▁sa	-895
fr	-896
icher	-897
▁high	-898
▁her	-899
▁Mar	-900
amen	-901
▁eines	-902
uropä	-903
ustr	-904
▁Coun	-905
▁kn	-906
rei	-907
▁hotel	-908
very	-909
ory	-910
▁bed	-911
▁This	-912
▁Or	-913
▁countries	-914
▁first	-915
ull	-916
▁loc	-917
▁than	-918
▁gew	-919
▁incl	-920
ention	-921
▁most	-922
▁vom	-923
olitik	-924
zeit	-925
▁hel	-926
▁wicht	-927
▁when	-928
▁dec	-929
▁his	-930
▁lie	-931
ating	-932
itte	-933
▁partic	-934
esent	-935
pect	-936
▁under	-937
▁Um	-938
iet	-939
▁vers	-940
▁them	-941
ace	-942
inn	-943
ards	-944
ages	-945
▁Über	-946
▁Council	-947
itz	-948
▁dam	-949
les	-950
▁just	-951
ett	-952
sicht	-953
▁polic	-954
▁sowie	-955
...	-956
▁Menschen	-957
▁wel	-958
▁Kon	-959
▁Entw	-960
att	-961
▁ele	-962
▁now	-963
▁again	-964
▁europä	-965
abe	-966
▁Bericht	-967
ond	-968
▁support	-969
änder	-970
?"	-971
▁Me	-972
tre	-973
▁dieses	-974
▁gu	-975
▁bas	-976
ats	-977
▁important	-978
lä	-979
ights	-980
▁make	-981
▁Ne	-982
äch	-983
▁aut	-984
ween	-985
els	-986
▁So	-987
▁Land	-988
▁gibt	-989
▁pla	-990
halt	-991
▁Q	-992
▁econom	-993
▁many	-994
ues	-995
▁how	-996
essen	-997
kl	-998
ho	-999
▁room	-1000
kommen	-1001
▁between	-1002
ever	-1003
stütz	-1004
Der	-1005
▁ass	-1006
fin	-1007
wir	-1008
▁propos	-1009
je	-1010
hand	-1011
oth	-1012
▁requ	-1013
▁mo	-1014
halb	-1015
▁fr	-1016
▁Comm	-1017
fter	-1018
any	-1019
issen	-1020
▁techn	-1021
ives	-1022
igung	-1023
▁poss	-1024
ös	-1025
ence	-1026
▁because	-1027
ließ	-1028
staaten	-1029
ural	-1030
▁zwischen	-1031
ware	-1032
ters	-1033
bst	-1034
▁leg	-1035
dr	-1036
▁take	-1037
▁bereit	-1038
▁fre	-1039
legen	-1040
öglich	-1041
zie	-1042
▁6	-1043
▁Verb	-1044
▁kon	-1045
▁world	-1046
ublic	-1047
▁market	-1048
tschaft	-1049
▁pos	-1050
uer	-1051
▁Entwick	-1052
▁'	-1053
▁Bed	-1054
ote	-1055
arm	-1056
ful	-1057
▁cre	-1058
This	-1059
▁muss	-1060
▁Fl	-1061
mal	-1062
oint	-1063
cted	-1064
blem	-1065
rough	-1066
off	-1067
▁fo	-1068
zial	-1069
weit	-1070
▁find	-1071
▁Pl	-1072
▁sel	-1073
ath	-1074
min	-1075
ict	-1076
▁Der	-1077
amp	-1078
lear	-1079
hör	-1080
▁op	-1081
▁unsere	-1082
▁son	-1083
▁par	-1084
▁national	-1085
Dies	-1086
It	-1087
ount	-1088
omp	-1089
dem	-1090
dit	-1091
▁where	-1092
▁keine	-1093
▁good	-1094
▁min	-1095
ality	-1096
▁Intern	-1097
nis	-1098
▁Str	-1099
▁Ent	-1100
▁great	-1101
▁hand	-1102
▁bie	-1103
rag	-1104
vern	-1105
▁nat	-1106
▁two	-1107
▁Ges	-1108
▁av	-1109
eschä	-1110
▁information	-1111
▁US	-1112
uring	-1113
▁emp	-1114
urn	-1115
rauch	-1116
▁Ihnen	-1117
achen	-1118
!"	-1119
▁rem	-1120
▁Min	-1121
▁every	-1122
öff	-1123
▁einz	-1124
▁Produ	-1125
▁verb	-1126
▁made	-1127
▁had	-1128
▁Art	-1129
▁years	-1130
▁conc	-1131
ße	-1132
▁anderen	-1133
ium	-1134
stand	-1135
aut	-1136
sel	-1137
amil	-1138
hm	-1139
▁mein	-1140
rol	-1141
unkt	-1142
▁even	-1143
▁end	-1144
▁Ihre	-1145
schie	-1146
▁Grund	-1147
▁through	-1148
laub	-1149
fort	-1150
air	-1151
▁way	-1152
cept	-1153
▁iss	-1154
▁system	-1155
geben	-1156
▁those	-1157
▁product	-1158
▁get	-1159
ischer	-1160
chten	-1161
ision	-1162
lish	-1163
▁„	-1164
forder	-1165
▁He	-1166
▁Mitgliedstaaten	-1167
▁see	-1168
ession	-1169
ina	-1170
gend	-1171
▁199	-1172
ereich	-1173
▁sc	-1174
▁Dies	-1175
gung	-1176
ält	-1177
▁Ä	-1178
▁Zusammen	-1179
▁weiter	-1180
▁ange	-1181
stell	-1182
urr	-1183
ister	-1184
▁Europa	-1185
ower	-1186
)."	-1187
ws	-1188
immer	-1189
weise	-1190
ys	-1191
▁immer	-1192
lag	-1193
ganis	-1194
day	-1195
▁policy	-1196
▁order	-1197
ows	-1198
▁may	-1199
erein	-1200
▁tak	-1201
ußer	-1202
lick	-1203
▁direct	-1204
▁disc	-1205
uman	-1206
spr	-1207
ument	-1208
Un	-1209
▁dann	-1210
ster	-1211
hne	-1212
▁Rat	-1213
▁right	-1214
unity	-1215
ituation	-1216
▁ac	-1217
▁Vorsch	-1218
▁7	-1219
rif	-1220
▁being	-1221
▁Fr	-1222
ivers	-1223
▁fact	-1224
alls	-1225
ital	-1226
▁beste	-1227
▁beg	-1228
ited	-1229
chts	-1230
▁num	-1231
isen	-1232
▁rest	-1233
▁ke	-1234
▁10	-1235
▁Nach	-1236
000	-1237
eration	-1238
▁belie	-1239
▁particular	-1240
▁appro	-1241
▁wieder	-1242
▁diesen	-1243
nahmen	-1244
▁car	-1245
▁differ	-1246
▁damit	-1247
gest	-1248
nung	-1249
▁cent	-1250
▁Haus	-1251
▁cour	-1252
▁ger	-1253
ionen	-1254
ior	-1255
com	-1256
▁8	-1257
▁zwe	-1258
▁trans	-1259
▁includ	-1260
▁wurden	-1261
vor	-1262
itt	-1263
▁Bereich	-1264
▁ganz	-1265
▁own	-1266
▁gesch	-1267
bal	-1268
part	-1269
aur	-1270
▁fü	-1271
eins	-1272
isse	-1273
icherheit	-1274
▁process	-1275
ough	-1276
▁Welt	-1277
ry	-1278
▁resp	-1279
▁“	-1280
iness	-1281
ade	-1282
eln	-1283
▁."	-1284
▁del	-1285
▁know	-1286
innen	-1287
adt	-1288
10	-1289
get	-1290
read	-1291
▁mon	-1292
zeich	-1293
atter	-1294
▁Ex	-1295
trag	-1296
▁Gro	-1297
ouse	-1298
old	-1299
▁[	-1300
ändern	-1301
gramm	-1302
▁bus	-1303
stitution	-1304
elle	-1305
▁area	-1306
▁quest	-1307
▁exp	-1308
▁Seit	-1309
▁main	-1310
ler	-1311
zen	-1312
oy	-1313
hin	-1314
▁kein	-1315
schieden	-1316
▁ph	-1317
▁unserer	-1318
itä	-1319
az	-1320
▁bu	-1321
ool	-1322
▁agre	-1323
alk	-1324
rechen	-1325
▁Hand	-1326
..."	-1327
An	-1328
▁real	-1329
round	-1330
▁help	-1331
▁here	-1332
▁Ihr	-1333
▁habe	-1334
▁Geb	-1335
ix	-1336
schafts	-1337
▁sondern	-1338
▁sm	-1339
▁stand	-1340
▁Bes	-1341
▁deb	-1342
▁after	-1343
urs	-1344
▁comple	-1345
▁seine	-1346
piel	-1347
eth	-1348
▁jedoch	-1349
leg	-1350
▁political	-1351
▁Fin	-1352
▁Am	-1353
ests	-1354
▁form	-1355
ince	-1356
tegr	-1357
gesch	-1358
ruck	-1359
▁Europäische	-1360
▁public	-1361
eld	-1362
▁place	-1363
If	-1364
▁ide	-1365
▁gut	-1366
▁incre	-1367
▁concern	-1368
Wenn	-1369
▁Ich	-1370
▁9	-1371
ines	-1372
▁prote	-1373
▁possible	-1374
mittel	-1375
ende	-1376
ved	-1377
▁same	-1378
istr	-1379
ax	-1380
▁Inter	-1381
ently	-1382
▁Bür	-1383
erk	-1384
▁sim	-1385
▁Gem	-1386
ktiv	-1387
res	-1388
▁ausge	-1389
▁clear	-1390
▁etw	-1391
▁Information	-1392
▁wür	-1393
iron	-1394
▁ser	-1395
bens	-1396
öglichkeit	-1397
ata	-1398
schließ	-1399
ierte	-1400
▁could	-1401
▁neue	-1402
▁human	-1403
eral	-1404
tens	-1405
▁Im	-1406
▁want	-1407
▁heute	-1408
▁bef	-1409
▁dr	-1410
fach	-1411
line	-1412
▁contin	-1413
).	-1414
▁say	-1415
lagen	-1416
▁number	-1417
▁All	-1418
nder	-1419
▁offer	-1420
▁Bar	-1421
▁Br	-1422
▁curr	-1423
▁economic	-1424
▁does	-1425
▁person	-1426
▁gleich	-1427
▁est	-1428
ven	-1429
▁then	-1430
▁development	-1431
▁As	-1432
▁opp	-1433
ertain	-1434
▁within	-1435
isk	-1436
▁effect	-1437
▁Ind	-1438
use	-1439
▁Kolle	-1440
▁wen	-1441
ßnahmen	-1442
iti	-1443
trä	-1444
▁rights	-1445
▁Con	-1446
▁Unternehmen	-1447
ants	-1448
▁Teil	-1449
tellt	-1450
osten	-1451
uro	-1452
raft	-1453
▁bereits	-1454
▁Fre	-1455
  	-1456
alen	-1457
▁avail	-1458
ics	-1459
▁transp	-1460
▁exam	-1461
▁fest	-1462
▁selbst	-1463
Mr	-1464
▁against	-1465
ähl	-1466
yp	-1467
▁Ste	-1468
▁ohne	-1469
ep	-1470
▁Änder	-1471
▁much	-1472
hip	-1473
▁mich	-1474
aup	-1475
▁fund	-1476
ander	-1477
▁both	-1478
bes	-1479
▁used	-1480
▁val	-1481
ma	-1482
▁Schl	-1483
▁vis	-1484
lage	-1485
▁Entwicklung	-1486
Al	-1487
▁therefore	-1488
icult	-1489
▁lang	-1490
▁prof	-1491
▁ihrer	-1492
▁Fran	-1493
▁Her	-1494
▁wichtig	-1495
licher	-1496
utions	-1497
lobal	-1498
stru	-1499
ock	-1500
▁sur	-1501
▁level	-1502
▁sollte	-1503
▁15	-1504
▁sign	-1505
loy	-1506
fern	-1507
▁hist	-1508
erung	-1509
ierten	-1510
que	-1511
rä	-1512
▁var	-1513
▁region	-1514
setz	-1515
▁europäischen	-1516
▁neuen	-1517
▁med	-1518
ife	-1519
viron	-1520
▁equ	-1521
ftware	-1522
ustom	-1523
ds	-1524
ulation	-1525
▁bring	-1526
▁pra	-1527
ivid	-1528
▁Germ	-1529
ständ	-1530
▁fun	-1531
▁Frau	-1532
▁play	-1533
aff	-1534
ux	-1535
▁full	-1536
äre	-1537
▁Pre	-1538
satz	-1539
▁Jahren	-1540
eng	-1541
▁andere	-1542
▁Richt	-1543
▁cr	-1544
▁provid	-1545
▁social	-1546
reichen	-1547
▁bo	-1548
▁country	-1549
öffent	-1550
ically	-1551
fahren	-1552
urg	-1553
agement	-1554
▁Vers	-1555
▁zwei	-1556
▁eigen	-1557
▁Bet	-1558
▁bre	-1559
ittee	-1560
▁Zu	-1561
öß	-1562
net	-1563
way	-1564
▁view	-1565
▁conf	-1566
wert	-1567
▁denn	-1568
▁think	-1569
▁finan	-1570
mb	-1571
eut	-1572
▁group	-1573
its	-1574
▁letz	-1575
▁last	-1576
▁without	-1577
▁point	-1578
▁still	-1579
vironment	-1580
wick	-1581
▁exper	-1582
work	-1583
trib	-1584
ichte	-1585
äng	-1586
ets	-1587
▁meas	-1588
under	-1589
▁ens	-1590
immt	-1591
▁denen	-1592
cur	-1593
▁Is	-1594
over	-1595
kehr	-1596
br	-1597
▁sollten	-1598
▁oper	-1599
▁consider	-1600
▁adv	-1601
iver	-1602
esse	-1603
▁different	-1604
▁Sicherheit	-1605
▁services	-1606
par	-1607
▁finden	-1608
▁Frage	-1609
▁long	-1610
▁access	-1611
ator	-1612
gar	-1613
As	-1614
▁gemeins	-1615
ffen	-1616
nahme	-1617
▁priv	-1618
▁möglich	-1619
▁mod	-1620
▁Kl	-1621
▁18	-1622
▁opt	-1623
fra	-1624
lichkeit	-1625
Herr	-1626
entral	-1627
ists	-1628
▁Mon	-1629
wort	-1630
esen	-1631
▁Es	-1632
▁verschieden	-1633
ohl	-1634
ER	-1635
▁spec	-1636
▁Hin	-1637
ize	-1638
ondere	-1639
▁ers	-1640
Be	-1641
ährend	-1642
hor	-1643
▁12	-1644
▁down	-1645
ationen	-1646
ness	-1647
▁govern	-1648
zeug	-1649
▁att	-1650
▁prin	-1651
▁free	-1652
ollow	-1653
▁available	-1654
▁cap	-1655
▁gel	-1656
richt	-1657
ope	-1658
▁require	-1659
aking	-1660
▁able	-1661
▁unterstütz	-1662
war	-1663
▁Bürger	-1664
▁back	-1665
uture	-1666
ude	-1667
orte	-1668
hol	-1669
▁industr	-1670
ritt	-1671
▁bietet	-1672
ibility	-1673
▁Fe	-1674
akt	-1675
▁kle	-1676
▁Daten	-1677
man	-1678
ready	-1679
▁Part	-1680
zahl	-1681
ised	-1682
pf	-1683
urther	-1684
iß	-1685
ability	-1686
▁business	-1687
▁special	-1688
▁Person	-1689
alth	-1690
atur	-1691
kun	-1692
▁dazu	-1693
ting	-1694
Sie	-1695
ience	-1696
▁Kont	-1697
vers	-1698
yn	-1699
ystems	-1700
▁before	-1701
▁small	-1702
▁look	-1703
ispiel	-1704
▁viele	-1705
▁liegt	-1706
afür	-1707
▁allen	-1708
▁machen	-1709
▁Kommiss	-1710
▁custom	-1711
ppen	-1712
ienst	-1713
▁weil	-1714
▁ben	-1715
▁already	-1716
gem	-1717
▁pers	-1718
▁future	-1719
▁gest	-1720
loss	-1721
▁aller	-1722
▁believe	-1723
ins	-1724
▁ze	-1725
ahmen	-1726
aben	-1727
▁cor	-1728
une	-1729
ders	-1730
▁air	-1731
ward	-1732
▁bek	-1733
tem	-1734
▁Mittel	-1735
ahre	-1736
ilt	-1737
press	-1738
cond	-1739
ktur	-1740
ased	-1741
ctor	-1742
▁som	-1743
▁hal	-1744
ctions	-1745
▁seiner	-1746
]]	-1747
zug	-1748
▁course	-1749
ves	-1750
▁Aut	-1751
▁open	-1752
▁today	-1753
▁könn	-1754
▁Gen	-1755
▁darauf	-1756
gramme	-1757
ante	-1758
kten	-1759
esell	-1760
▁project	-1761
jor	-1762
agen	-1763
ismus	-1764
▁Tra	-1765
▁set	-1766
annt	-1767
welt	-1768
▁Stand	-1769
▁design	-1770
▁too	-1771
▁jetzt	-1772
▁Möglichkeit	-1773
äh	-1774
▁inst	-1775
ving	-1776
▁cann	-1777
äß	-1778
▁products	-1779
▁service	-1780
aher	-1781
▁et	-1782
▁größ	-1783
▁eing	-1784
▁environment	-1785
▁Them	-1786
ron	-1787
▁Finanz	-1788
omen	-1789
▁fl	-1790
imin	-1791
itiz	-1792
▁respons	-1793
hält	-1794
▁cannot	-1795
ica	-1796
▁fac	-1797
For	-1798
▁certain	-1799
▁Rahmen	-1800
cr	-1801
nisse	-1802
zus	-1803
curity	-1804
come	-1805
200	-1806
▁data	-1807
mar	-1808
▁geht	-1809
▁Lage	-1810
▁geb	-1811
▁prev	-1812
öl	-1813
tend	-1814
other	-1815
ren	-1816
▁schon	-1817
▁Maßnahmen	-1818
▁Dem	-1819
lease	-1820
▁einfach	-1821
aterial	-1822
olution	-1823
▁mir	-1824
okrat	-1825
▁follow	-1826
▁fra	-1827
▁redu	-1828
▁seit	-1829
▁bro	-1830
ately	-1831
▁case	-1832
▁bin	-1833
chie	-1834
▁Ziel	-1835
operation	-1836
▁individ	-1837
los	-1838
Im	-1839
iving	-1840
▁Informationen	-1841
▁neg	-1842
▁int	-1843
▁Med	-1844
▁kl	-1845
▁offers	-1846
co	-1847
▁einige	-1848
▁"(	-1849
▁dafür	-1850
▁Verein	-1851
olid	-1852
▁regard	-1853
klär	-1854
▁put	-1855
ars	-1856
▁eas	-1857
▁Rechts	-1858
abei	-1859
▁question	-1860
▁impro	-1861
tain	-1862
orn	-1863
EN	-1864
red	-1865
▁Man	-1866
raph	-1867
▁&	-1868
affen	-1869
▁Gemein	-1870
▁voll	-1871
ential	-1872
ätz	-1873
▁Energ	-1874
ccess	-1875
▁art	-1876
▁ter	-1877
iber	-1878
▁je	-1879
ually	-1880
ervice	-1881
▁Herrn	-1882
▁[[	-1883
▁integr	-1884
isierung	-1885
eich	-1886
folg	-1887
ified	-1888
ilit	-1889
▁0	-1890
▁financial	-1891
▁You	-1892
▁city	-1893
▁change	-1894
imes	-1895
▁reas	-1896
▁imple	-1897
inen	-1898
▁repr	-1899
▁posit	-1900
▁Internet	-1901
ather	-1902
St	-1903
▁during	-1904
▁Aussch	-1905
grund	-1906
▁Stadt	-1907
allen	-1908
▁At	-1909
ichten	-1910
▁rev	-1911
▁citiz	-1912
20	-1913
utes	-1914
▁Ro	-1915
▁ihren	-1916
llt	-1917
üh	-1918
▁Pol	-1919
▁zurück	-1920
anden	-1921
▁problem	-1922
▁far	-1923
▁activ	-1924
ünd	-1925
▁prom	-1926
ahn	-1927
▁invest	-1928
lex	-1929
▁Russ	-1930
▁Tran	-1931
▁day	-1932
▁Wh	-1933
ucht	-1934
ove	-1935
▁said	-1936
▁fol	-1937
▁deut	-1938
▁allem	-1939
▁Amer	-1940
▁imp	-1941
ichter	-1942
cing	-1943
ller	-1944
▁nun	-1945
▁global	-1946
▁large	-1947
amm	-1948
uchen	-1949
▁stat	-1950
▁means	-1951
▁achie	-1952
▁issue	-1953
▁meine	-1954
▁Jahre	-1955
äm	-1956
▁energ	-1957
▁proposal	-1958
▁saf	-1959
bsite	-1960
aum	-1961
▁example	-1962
iele	-1963
▁ask	-1964
ily	-1965
▁el	-1966
scheid	-1967
lossen	-1968
▁2009	-1969
reib	-1970
isl	-1971
▁Des	-1972
▁zusammen	-1973
so	-1974
▁quality	-1975
ways	-1976
▁major	-1977
▁cost	-1978
nov	-1979
▁applic	-1980
besondere	-1981
▁member	-1982
▁Zimmer	-1983
▁modern	-1984
heiten	-1985
▁famil	-1986
halts	-1987
▁gef	-1988
▁entsp	-1989
▁meet	-1990
▁since	-1991
illion	-1992
punkt	-1993
udget	-1994
▁besch	-1995
gress	-1996
▁present	-1997
▁situation	-1998
▁Commissioner	-1999
▁strateg	-2000
aupt	-2001
▁besonder	-2002
▁rooms	-2003
▁debate	-2004
▁necess	-2005
iend	-2006
owever	-2007
ites	-2008
ether	-2009
unter	-2010
▁wollen	-2011
▁sicher	-2012
▁verfü	-2013
▁unseren	-2014
ized	-2015
amer	-2016
führt	-2017
org	-2018
antwort	-2019
aat	-2020
ule	-2021
▁Ö	-2022
▁einge	-2023
▁technolog	-2024
ilities	-2025
ash	-2026
leist	-2027
▁child	-2028
fts	-2029
▁Kommissar	-2030
ktionen	-2031
▁amend	-2032
▁common	-2033
blems	-2034
▁würde	-2035
eschäft	-2036
pre	-2037
angen	-2038
▁eng	-2039
Ein	-2040
▁each	-2041
▁Kin	-2042
▁adop	-2043
haf	-2044
▁Pal	-2045
tellen	-2046
kunft	-2047
▁Wor	-2048
▁che	-2049
etzen	-2050
licht	-2051
▁pass	-2052
▁including	-2053
oren	-2054
fass	-2055
▁gar	-2056
oten	-2057
▁compet	-2058
▁Gew	-2059
▁Committee	-2060
▁power	-2061
omat	-2062
ache	-2063
immung	-2064
▁Bo	-2065
▁citizens	-2066
▁Parlaments	-2067
reit	-2068
▁Arbeits	-2069
▁colle	-2070
▁ref	-2071
cip	-2072
▁Gesch	-2073
vention	-2074
ird	-2075
▁Politik	-2076
ode	-2077
▁während	-2078
▁stehen	-2079
▁Eng	-2080
▁Best	-2081
genommen	-2082
▁etwas	-2083
tt	-2084
bed	-2085
ieder	-2086
▁three	-2087
opp	-2088
ablish	-2089
aurant	-2090
▁sagen	-2091
▁stay	-2092
▁allow	-2093
▁found	-2094
ining	-2095
gew	-2096
▁areas	-2097
ipp	-2098
▁object	-2099
▁respect	-2100
▁cult	-2101
gangen	-2102
▁measures	-2103
▁next	-2104
ains	-2105
▁Vorschlag	-2106
orth	-2107
▁Form	-2108
▁doch	-2109
▁sozial	-2110
▁stud	-2111
▁Ph	-2112
▁30	-2113
▁give	-2114
▁organis	-2115
▁/	-2116
zept	-2117
▁few	-2118
uge	-2119
zw	-2120
▁Bild	-2121
▁Go	-2122
ordnung	-2123
ugen	-2124
▁author	-2125
ands	-2126
▁democ	-2127
▁rece	-2128
▁Sh	-2129
▁ensure	-2130
▁br	-2131
linie	-2132
▁discuss	-2133
▁result	-2134
▁komm	-2135
▁Ur	-2136
▁Euro	-2137
▁"  	-2138
asch	-2139
▁%	-2140
rache	-2141
▁erm	-2142
ught	-2143
ürlich	-2144
▁further	-2145
▁provide	-2146
▁histor	-2147
▁energy	-2148
▁thank	-2149
▁pres	-2150
ination	-2151
▁tun	-2152
▁wissen	-2153
schaften	-2154
iff	-2155
▁taken	-2156
▁insbesondere	-2157
▁erst	-2158
▁success	-2159
falls	-2160
Mit	-2161
▁Länder	-2162
▁fil	-2163
unde	-2164
▁agreement	-2165
gleich	-2166
▁mus	-2167
▁cal	-2168
▁build	-2169
▁erhalten	-2170
▁control	-2171
▁Spe	-2172
anken	-2173
stellung	-2174
▁kom	-2175
schl	-2176
▁addition	-2177
▁...	-2178
stützung	-2179
However	-2180
iate	-2181
▁dra	-2182
▁Ger	-2183
▁Res	-2184
ser	-2185
gre	-2186
▁einmal	-2187
▁Lös	-2188
▁Mein	-2189
▁Deut	-2190
agt	-2191
▁waren	-2192
indet	-2193
ziel	-2194
ek	-2195
▁grow	-2196
▁employ	-2197
itor	-2198
▁öffent	-2199
▁det	-2200
▁Verfü	-2201
▁pay	-2202
lungs	-2203
▁außer	-2204
▁Fall	-2205
▁position	-2206
▁establish	-2207
On	-2208
igin	-2209
ases	-2210
ilfe	-2211
There	-2212
▁read	-2213
por	-2214
legt	-2215
itäten	-2216
▁abs	-2217
cken	-2218
Er	-2219
▁kommen	-2220
gang	-2221
▁Problem	-2222
chnolog	-2223
ditions	-2224
ohn	-2225
▁law	-2226
igten	-2227
▁vo	-2228
uff	-2229
▁Änderungs	-2230
▁beim	-2231
▁come	-2232
▁link	-2233
ling	-2234
▁Kunden	-2235
ules	-2236
▁du	-2237
▁There	-2238
bo	-2239
▁opport	-2240
▁pop	-2241
▁inde	-2242
jekt	-2243
▁Ad	-2244
arte	-2245
▁Group	-2246
arn	-2247
▁sk	-2248
rop	-2249
ross	-2250
▁Ital	-2251
▁Qual	-2252
▁On	-2253
▁Markt	-2254
▁ersten	-2255
▁problems	-2256
▁shall	-2257
aren	-2258
▁ho	-2259
ements	-2260
ums	-2261
▁verw	-2262
▁necessary	-2263
uten	-2264
▁company	-2265
▁Zusammenarbeit	-2266
▁did	-2267
igkeiten	-2268
▁name	-2269
▁China	-2270
▁schw	-2271
arten	-2272
▁terr	-2273
▁Unterstützung	-2274
▁lassen	-2275
utzen	-2276
▁princip	-2277
politik	-2278
fre	-2279
▁Namen	-2280
esser	-2281
unic	-2282
med	-2283
rodu	-2284
▁begr	-2285
▁key	-2286
▁Bl	-2287
▁drei	-2288
ott	-2289
umen	-2290
▁Zug	-2291
pend	-2292
▁given	-2293
lemen	-2294
▁legisl	-2295
ises	-2296
▁budget	-2297
AT	-2298
▁|	-2299
▁groß	-2300
fung	-2301
▁security	-2302
▁ä	-2303
▁pract	-2304
tschafts	-2305
bau	-2306
▁Mus	-2307
elf	-2308
▁geben	-2309
▁invol	-2310
▁em	-2311
fang	-2312
▁Schw	-2313
AN	-2314
Diese	-2315
glichen	-2316
▁25	-2317
▁health	-2318
▁wirk	-2319
ichts	-2320
esellschaft	-2321
▁hope	-2322
örder	-2323
▁why	-2324
▁however	-2325
ising	-2326
lungen	-2327
▁second	-2328
ctive	-2329
▁ret	-2330
▁lead	-2331
▁entwick	-2332
orgen	-2333
▁char	-2334
▁Proble	-2335
▁Umwelt	-2336
▁Spiel	-2337
bewer	-2338
1.	-2339
▁verl	-2340
joy	-2341
iety	-2342
ppe	-2343
asse	-2344
▁Mill	-2345
iter	-2346
burg	-2347
ively	-2348
isation	-2349
▁while	-2350
wards	-2351
▁cooperation	-2352
ared	-2353
urz	-2354
▁Stra	-2355
▁Recht	-2356
▁besteht	-2357
gether	-2358
▁wirtschaft	-2359
fte	-2360
▁bl	-2361
▁Qu	-2362
IN	-2363
▁14	-2364
ave	-2365
führung	-2366
▁located	-2367
▁X	-2368
▁wish	-2369
▁ander	-2370
ES	-2371
▁start	-2372
▁gra	-2373
▁life	-2374
▁protection	-2375
von	-2376
▁Dienst	-2377
▁ir	-2378
OR	-2379
▁implement	-2380
schied	-2381
arch	-2382
▁tradition	-2383
▁refer	-2384
ury	-2385
▁always	-2386
▁Ländern	-2387
altung	-2388
▁führen	-2389
▁needs	-2390
▁complete	-2391
wendung	-2392
▁steht	-2393
▁writ	-2394
▁sehen	-2395
text	-2396
▁seinen	-2397
zieh	-2398
ried	-2399
▁Deb	-2400
▁Geschä	-2401
▁Ko	-2402
▁Tag	-2403
ald	-2404
earch	-2405
▁vote	-2406
▁inform	-2407
▁Tr	-2408
kon	-2409
ique	-2410
▁16	-2411
▁Wer	-2412
lect	-2413
▁Fragen	-2414
ogen	-2415
▁comb	-2416
▁statt	-2417
▁beh	-2418
▁Vol	-2419
häng	-2420
▁System	-2421
▁sens	-2422
öt	-2423
▁Rest	-2424
▁Cl	-2425
▁diff	-2426
by	-2427
▁wäre	-2428
▁akt	-2429
▁better	-2430
▁House	-2431
kre	-2432
cell	-2433
▁United	-2434
ätze	-2435
ichterst	-2436
▁schne	-2437
stellen	-2438
▁mult	-2439
▁Sw	-2440
▁Kollegen	-2441
ivil	-2442
ca	-2443
dress	-2444
ettbewer	-2445
▁Diese	-2446
tion	-2447
▁dabei	-2448
zess	-2449
▁Beit	-2450
▁tre	-2451
ty	-2452
äd	-2453
▁action	-2454
▁interest	-2455
atch	-2456
schein	-2457
gaben	-2458
▁Red	-2459
alle	-2460
▁account	-2461
▁glaub	-2462
ialog	-2463
▁Port	-2464
iation	-2465
▁gehör	-2466
zü	-2467
spro	-2468
▁net	-2469
▁Lebens	-2470
▁17	-2471
▁hö	-2472
▁nor	-2473
▁men	-2474
▁legal	-2475
bereich	-2476
ämp	-2477
Re	-2478
▁fiel	-2479
▁letzten	-2480
▁using	-2481
uft	-2482
▁fav	-2483
iste	-2484
rechte	-2485
▁worden	-2486
▁cho	-2487
sequ	-2488
▁2010	-2489
▁Regierung	-2490
pecial	-2491
▁And	-2492
▁muß	-2493
▁defin	-2494
ikan	-2495
▁Kr	-2496
blick	-2497
enten	-2498
▁Energie	-2499
▁Community	-2500
iod	-2501
less	-2502
ierungs	-2503
▁2008	-2504
19	-2505
obil	-2506
▁ble	-2507
▁mov	-2508
undheit	-2509
eite	-2510
▁Bedeut	-2511
rän	-2512
▁consum	-2513
gehen	-2514
▁sing	-2515
clus	-2516
ingungen	-2517
▁reach	-2518
▁La	-2519
▁based	-2520
▁around	-2521
▁Bel	-2522
▁conne	-2523
▁transport	-2524
ölk	-2525
▁großen	-2526
gabe	-2527
iges	-2528
▁deren	-2529
abil	-2530
asser	-2531
▁Verfügung	-2532
gestellt	-2533
▁große	-2534
▁Kom	-2535
▁welche	-2536
▁terms	-2537
▁working	-2538
markt	-2539
genden	-2540
▁current	-2541
▁add	-2542
ify	-2543
cher	-2544
▁Bedeutung	-2545
▁met	-2546
▁Entscheid	-2547
▁rep	-2548
▁USA	-2549
ervor	-2550
▁inner	-2551
▁50	-2552
▁Seite	-2553
▁stru	-2554
▁Besch	-2555
ged	-2556
▁production	-2557
▁short	-2558
▁Ser	-2559
▁become	-2560
of	-2561
lev	-2562
racht	-2563
▁Ergeb	-2564
▁Sk	-2565
▁whether	-2566
uments	-2567
▁Rom	-2568
ell	-2569
pporte	-2570
So	-2571
isher	-2572
▁particularly	-2573
▁less	-2574
▁non	-2575
▁crit	-2576
eder	-2577
offe	-2578
▁Region	-2579
▁centre	-2580
▁individual	-2581
▁extre	-2582
▁together	-2583
▁difficult	-2584
▁def	-2585
▁bel	-2586
▁another	-2587
▁visit	-2588
▁lim	-2589
▁near	-2590
▁Famil	-2591
load	-2592
uter	-2593
▁sl	-2594
ünst	-2595
▁13	-2596
hof	-2597
ferenz	-2598
Wh	-2599
▁state	-2600
▁dist	-2601
bild	-2602
▁research	-2603
immen	-2604
▁trade	-2605
▁Schutz	-2606
▁water	-2607
▁zahl	-2608
Des	-2609
druck	-2610
osition	-2611
igent	-2612
▁clos	-2613
▁him	-2614
kauf	-2615
anies	-2616
ustrie	-2617
▁ear	-2618
▁care	-2619
▁children	-2620
▁bene	-2621
▁notwend	-2622
▁contrib	-2623
bene	-2624
▁whole	-2625
▁exist	-2626
▁beach	-2627
astr	-2628
pecially	-2629
room	-2630
▁Vertrag	-2631
tellung	-2632
▁Regel	-2633
▁issues	-2634
▁tour	-2635
▁jeder	-2636
▁local	-2637
▁hervor	-2638
▁bieten	-2639
ners	-2640
ots	-2641
▁100	-2642
akes	-2643
▁Gu	-2644
▁Mrs	-2645
träge	-2646
▁Kinder	-2647
▁davon	-2648
▁conditions	-2649
iar	-2650
ames	-2651
▁Thema	-2652
arante	-2653
bt	-2654
entrum	-2655
ckt	-2656
▁specific	-2657
leit	-2658
▁richt	-2659
▁reason	-2660
▁darüber	-2661
üt	-2662
▁friend	-2663
▁entfern	-2664
▁International	-2665
atte	-2666
▁erforder	-2667
ON	-2668
▁Tur	-2669
xim	-2670
▁enjoy	-2671
iew	-2672
▁km	-2673
▁call	-2674
▁But	-2675
ultur	-2676
▁UN	-2677
▁Wirtschafts	-2678
▁eben	-2679
orts	-2680
ording	-2681
▁aff	-2682
▁subject	-2683
▁show	-2684
vest	-2685
▁2007	-2686
▁Service	-2687
▁stellen	-2688
▁bew	-2689
hö	-2690
▁gegenüber	-2691
rieden	-2692
▁book	-2693
▁Beispiel	-2694
▁ann	-2695
kungen	-2696
▁24	-2697
▁daher	-2698
▁address	-2699
▁Mal	-2700
With	-2701
▁Bus	-2702
▁alles	-2703
▁systems	-2704
ody	-2705
adies	-2706
▁role	-2707
▁Air	-2708
▁rapporte	-2709
▁Durch	-2710
ton	-2711
ika	-2712
▁tax	-2713
schrif	-2714
▁various	-2715
ikel	-2716
▁Weise	-2717
ennt	-2718
▁brauch	-2719
▁Probleme	-2720
▁Berichterst	-2721
ufen	-2722
ategor	-2723
hang	-2724
ours	-2725
▁eigenen	-2726
▁Ben	-2727
ength	-2728
▁Fol	-2729
▁run	-2730
Fra	-2731
fäh	-2732
▁experience	-2733
▁women	-2734
▁gesam	-2735
wirtschaft	-2736
▁Gä	-2737
ails	-2738
row	-2739
▁organ	-2740
▁companies	-2741
▁page	-2742
▁sowohl	-2743
50	-2744
▁step	-2745
▁sector	-2746
▁old	-2747
isions	-2748
▁Haushalts	-2749
▁That	-2750
▁politischen	-2751
isches	-2752
▁ur	-2753
▁industry	-2754
▁basis	-2755
▁guarante	-2756
schutz	-2757
▁San	-2758
▁Frauen	-2759
▁Wahl	-2760
▁aim	-2761
▁näch	-2762
▁weitere	-2763
▁befindet	-2764
▁Zahl	-2765
▁benef	-2766
▁Weg	-2767
aster	-2768
sen	-2769
esehen	-2770
▁EUR	-2771
▁Fahr	-2772
▁könnte	-2773
ches	-2774
▁occ	-2775
Pro	-2776
▁German	-2777
▁dort	-2778
oney	-2779
▁erreichen	-2780
itiative	-2781
gemein	-2782
▁Stud	-2783
neten	-2784
▁Ihrer	-2785
▁pack	-2786
▁origin	-2787
▁beaut	-2788
▁comfort	-2789
irm	-2790
▁hatte	-2791
▁meiner	-2792
▁really	-2793
thing	-2794
▁profession	-2795
imate	-2796
geord	-2797
▁deal	-2798
▁natürlich	-2799
▁matter	-2800
▁wirklich	-2801
▁Lin	-2802
▁di	-2803
▁commit	-2804
▁1.	-2805
▁sever	-2806
chan	-2807
lock	-2808
reaty	-2809
▁arbeit	-2810
▁typ	-2811
▁third	-2812
▁col	-2813
▁besonders	-2814
▁Ende	-2815
ober	-2816
ritte	-2817
▁tot	-2818
ai	-2819
▁break	-2820
▁prior	-2821
ably	-2822
gende	-2823
▁Zukunft	-2824
▁bar	-2825
▁especially	-2826
▁Ausschuss	-2827
▁Mark	-2828
ived	-2829
▁month	-2830
▁innov	-2831
sk	-2832
30	-2833
▁ihnen	-2834
AR	-2835
▁members	-2836
▁staff	-2837
▁government	-2838
ances	-2839
ino	-2840
▁close	-2841
▁done	-2842
▁period	-2843
▁Haupt	-2844
▁Geschäfts	-2845
▁Not	-2846
▁gent	-2847
til	-2848
▁Staaten	-2849
▁Fun	-2850
▁verschiedenen	-2851
▁unterstützen	-2852
▁doc	-2853
reg	-2854
▁proced	-2855
cellent	-2856
▁Fort	-2857
ization	-2858
ifiz	-2859
amt	-2860
uktur	-2861
▁she	-2862
▁entfernt	-2863
inter	-2864
▁food	-2865
finden	-2866
▁mot	-2867
ünft	-2868
▁Forsch	-2869
dings	-2870
▁hoch	-2871
zuf	-2872
ograph	-2873
treten	-2874
▁innerhalb	-2875
▁top	-2876
ething	-2877
ety	-2878
ival	-2879
To	-2880
▁negot	-2881
ican	-2882
ima	-2883
▁personal	-2884
ides	-2885
▁Produkt	-2886
spl	-2887
▁create	-2888
▁El	-2889
▁feat	-2890
werk	-2891
▁Seiten	-2892
▁vielen	-2893
▁Situation	-2894
▁teil	-2895
IT	-2896
▁turn	-2897
▁location	-2898
▁private	-2899
kung	-2900
neh	-2901
▁Rolle	-2902
▁site	-2903
▁instit	-2904
▁Deutsch	-2905
▁perform	-2906
raum	-2907
▁represent	-2908
▁approach	-2909
▁ple	-2910
asing	-2911
icient	-2912
▁press	-2913
▁Comp	-2914
▁sum	-2915
ences	-2916
▁Park	-2917
ichtet	-2918
▁betr	-2919
▁enter	-2920
▁zwar	-2921
▁prop	-2922
scheiden	-2923
▁soc	-2924
▁gener	-2925
indung	-2926
app	-2927
▁Programm	-2928
▁reform	-2929
duc	-2930
weisen	-2931
ec	-2932
▁New	-2933
▁event	-2934
oment	-2935
▁welt	-2936
ension	-2937
▁Wettbewer	-2938
▁internationalen	-2939
▁among	-2940
fast	-2941
▁single	-2942
▁job	-2943
uc	-2944
▁poin	-2945
"",	-2946
▁decision	-2947
▁itself	-2948
▁lo	-2949
üd	-2950
zip	-2951
ordin	-2952
▁something	-2953
olf	-2954
ults	-2955
▁bestimm	-2956
▁star	-2957
▁Bei	-2958
iol	-2959
▁several	-2960
▁möchten	-2961
▁langu	-2962
lands	-2963
ühr	-2964
oor	-2965
▁struct	-2966
▁pat	-2967
ktor	-2968
▁Fest	-2969
ativen	-2970
▁doub	-2971
▁general	-2972
ean	-2973
▁resour	-2974
eign	-2975
▁list	-2976
▁:	-2977
▁favour	-2978
eiten	-2979
ift	-2980
uellen	-2981
▁Gru	-2982
▁install	-2983
▁Lie	-2984
ittle	-2985
ministr	-2986
wh	-2987
▁Gegen	-2988
ians	-2989
onds	-2990
▁Richtlinie	-2991
▁material	-2992
isis	-2993
uth	-2994
tember	-2995
▁town	-2996
▁Terr	-2997
▁aufge	-2998
▁direkt	-2999
ände	-3000
▁Disk	-3001
mat	-3002
▁making	-3003
▁continue	-3004
▁Tour	-3005
▁Afr	-3006
▁hinaus	-3007
▁dür	-3008
▁11	-3009
▁programme	-3010
rael	-3011
▁Verbrauch	-3012
▁Woch	-3013
▁Ihren	-3014
mework	-3015
▁resolution	-3016
mos	-3017
wär	-3018
▁gl	-3019
▁enc	-3020
▁least	-3021
▁Abst	-3022
▁Jan	-3023
▁Software	-3024
ification	-3025
▁Germany	-3026
▁accept	-3027
▁automat	-3028
▁gentlemen	-3029
▁following	-3030
▁introdu	-3031
▁Nutz	-3032
cel	-3033
▁Strateg	-3034
▁million	-3035
sprache	-3036
IS	-3037
iations	-3038
▁tro	-3039
wä	-3040
▁progress	-3041
▁serious	-3042
▁peace	-3043
▁Kü	-3044
▁away	-3045
▁relations	-3046
▁excellent	-3047
▁"""	-3048
▁going	-3049
hens	-3050
▁let	-3051
▁kind	-3052
▁often	-3053
go	-3054
▁opin	-3055
nehmer	-3056
▁text	-3057
Sch	-3058
▁Chr	-3059
▁plan	-3060
▁home	-3061
met	-3062
▁management	-3063
ifen	-3064
atives	-3065
miss	-3066
▁sup	-3067
▁Hotels	-3068
auer	-3069
▁erste	-3070
bei	-3071
▁Mehr	-3072
▁understand	-3073
▁konn	-3074
At	-3075
▁family	-3076
▁directive	-3077
▁particip	-3078
▁offen	-3079
▁rules	-3080
let	-3081
CH	-3082
iere	-3083
▁ans	-3084
▁europäische	-3085
erien	-3086
▁Rück	-3087
aps	-3088
gricult	-3089
▁mar	-3090
▁Zwe	-3091
fehl	-3092
▁rapporteur	-3093
▁crisis	-3094
strument	-3095
▁apart	-3096
iken	-3097
▁Wind	-3098
▁Dire	-3099
antrag	-3100
▁2000	-3101
▁contact	-3102
oto	-3103
▁regul	-3104
▁anal	-3105
▁sett	-3106
icle	-3107
ierungen	-3108
produ	-3109
▁Uhr	-3110
ksam	-3111
though	-3112
▁Meinung	-3113
fect	-3114
icial	-3115
▁feel	-3116
weg	-3117
▁mach	-3118
ype	-3119
▁towards	-3120
▁forward	-3121
▁money	-3122
▁software	-3123
▁once	-3124
▁express	-3125
unds	-3126
▁stark	-3127
leistungen	-3128
▁Op	-3129
▁inc	-3130
▁einzel	-3131
▁klar	-3132
▁Berlin	-3133
roll	-3134
yl	-3135
▁Gesundheit	-3136
▁price	-3137
▁range	-3138
thers	-3139
orm	-3140
▁Kre	-3141
▁line	-3142
▁welcome	-3143
achst	-3144
ully	-3145
▁extrem	-3146
▁Transp	-3147
ony	-3148
pekt	-3149
▁fast	-3150
▁etc	-3151
etzung	-3152
▁things	-3153
▁absol	-3154
▁online	-3155
stück	-3156
▁little	-3157
prü	-3158
▁recog	-3159
zogen	-3160
▁Rep	-3161
airs	-3162
▁dest	-3163
▁Zusammenhang	-3164
▁institutions	-3165
▁bal	-3166
voll	-3167
Se	-3168
▁hät	-3169
eu	-3170
▁Su	-3171
▁Emp	-3172
▁mention	-3173
ference	-3174
teilung	-3175
▁communic	-3176
-0	-3177
ußen	-3178
bet	-3179
adam	-3180
▁ident	-3181
▁ant	-3182
▁Abgeord	-3183
▁Univers	-3184
▁post	-3185
▁zus	-3186
ifft	-3187
▁until	-3188
itäts	-3189
weis	-3190
▁World	-3191
▁Fisch	-3192
▁situ	-3193
▁beiden	-3194
haus	-3195
wand	-3196
esten	-3197
istic	-3198
▁milit	-3199
▁unserem	-3200
lik	-3201
DE	-3202
En	-3203
▁kommt	-3204
enzen	-3205
▁stre	-3206
▁Frank	-3207
outh	-3208
▁No	-3209
▁days	-3210
▁198	-3211
asst	-3212
▁walk	-3213
▁schnell	-3214
▁Met	-3215
▁optim	-3216
▁Invest	-3217
anges	-3218
ennen	-3219
▁customers	-3220
▁Komm	-3221
gän	-3222
▁finanz	-3223
ured	-3224
▁aid	-3225
▁Gäste	-3226
na	-3227
▁Partner	-3228
yr	-3229
▁strong	-3230
▁Treaty	-3231
ume	-3232
▁Our	-3233
vent	-3234
▁ess	-3235
▁entsprechen	-3236
▁Gra	-3237
zimmer	-3238
läge	-3239
▁Hilfe	-3240
ison	-3241
AS	-3242
ww	-3243
▁Entschließ	-3244
▁increase	-3245
▁Span	-3246
atten	-3247
▁Personen	-3248
lean	-3249
▁Präsidentin	-3250
idence	-3251
tract	-3252
▁agree	-3253
ieten	-3254
""."	-3255
▁bestehen	-3256
iesen	-3257
ommend	-3258
▁opportunity	-3259
leicht	-3260
▁Can	-3261
ächst	-3262
▁Bank	-3263
fassung	-3264
▁weltweit	-3265
▁Für	-3266
▁rather	-3267
▁keep	-3268
idency	-3269
▁growth	-3270
▁Schluss	-3271
rech	-3272
▁activities	-3273
Wie	-3274
▁Nov	-3275
▁Verantwort	-3276
▁mind	-3277
ocus	-3278
half	-3279
▁Technolog	-3280
▁2006	-3281
▁National	-3282
▁hard	-3283
▁ve	-3284
liches	-3285
ha	-3286
▁function	-3287
▁quite	-3288
▁Artikel	-3289
edom	-3290
stra	-3291
▁stellt	-3292
äuf	-3293
▁bringen	-3294
weil	-3295
ielen	-3296
▁Lösung	-3297
▁check	-3298
mäß	-3299
crip	-3300
▁bzw	-3301
aden	-3302
▁Ums	-3303
▁ja	-3304
han	-3305
baren	-3306
▁seem	-3307
▁il	-3308
side	-3309
ließen	-3310
▁positive	-3311
▁Fil	-3312
▁provided	-3313
annten	-3314
▁stär	-3315
▁begrü	-3316
.0	-3317
▁resources	-3318
▁try	-3319
▁Leben	-3320
ales	-3321
▁elect	-3322
ply	-3323
Um	-3324
▁tas	-3325
▁big	-3326
▁ren	-3327
▁Demokrat	-3328
▁sw	-3329
▁führ	-3330
▁partners	-3331
ären	-3332
▁Natur	-3333
▁Organis	-3334
▁sug	-3335
▁weniger	-3336
▁daran	-3337
▁mean	-3338
▁dev	-3339
▁indem	-3340
▁might	-3341
rolle	-3342
eits	-3343
▁behalf	-3344
▁treat	-3345
forderungen	-3346
▁gilt	-3347
erecht	-3348
▁Kultur	-3349
ined	-3350
▁Members	-3351
▁Pe	-3352
▁land	-3353
▁fully	-3354
▁Car	-3355
reiche	-3356
Ver	-3357
▁etwa	-3358
ücksicht	-3359
▁Jul	-3360
ideo	-3361
▁port	-3362
▁gewähr	-3363
apan	-3364
▁qual	-3365
ämlich	-3366
▁class	-3367
hnt	-3368
mosph	-3369
▁jeden	-3370
bon	-3371
▁gesagt	-3372
▁Minister	-3373
frage	-3374
▁include	-3375
▁four	-3376
abhäng	-3377
zeitig	-3378
▁Cent	-3379
letz	-3380
wohl	-3381
alität	-3382
▁nämlich	-3383
▁Sep	-3384
▁lab	-3385
▁signific	-3386
iful	-3387
legenheit	-3388
▁umf	-3389
▁yet	-3390
amb	-3391
▁bitte	-3392
onger	-3393
plan	-3394
ager	-3395
ählen	-3396
amental	-3397
▁gute	-3398
stadt	-3399
ona	-3400
ühren	-3401
▁value	-3402
▁persön	-3403
▁park	-3404
▁ideal	-3405
itions	-3406
einander	-3407
fert	-3408
▁having	-3409
komm	-3410
▁ladies	-3411
the	-3412
▁pur	-3413
ception	-3414
▁Rates	-3415
▁Sozial	-3416
▁State	-3417
prochen	-3418
▁entscheiden	-3419
ij	-3420
▁sogar	-3421
▁technology	-3422
▁mag	-3423
setzung	-3424
▁Mo	-3425
▁genau	-3426
ratic	-3427
Auf	-3428
▁field	-3429
▁Ort	-3430
telle	-3431
ächlich	-3432
▁proposals	-3433
hunder	-3434
▁Char	-3435
▁..."	-3436
▁bor	-3437
recht	-3438
▁amendments	-3439
OM	-3440
ops	-3441
▁Produkte	-3442
▁Erfahr	-3443
wendet	-3444
völk	-3445
▁Kosten	-3446
▁kurz	-3447
▁gerade	-3448
uh	-3449
▁Europas	-3450
▁educ	-3451
▁along	-3452
self	-3453
▁Sc	-3454
▁erfolg	-3455
▁remain	-3456
▁framework	-3457
You	-3458
▁u	-3459
tragen	-3460
illa	-3461
iten	-3462
▁times	-3463
▁left	-3464
roffen	-3465
▁nehmen	-3466
▁Bas	-3467
▁tem	-3468
▁solution	-3469
arf	-3470
▁Geld	-3471
▁bekannt	-3472
▁Austr	-3473
▁log	-3474
armon	-3475
ingen	-3476
▁kosten	-3477
lei	-3478
fully	-3479
▁safety	-3480
▁Ass	-3481
▁minutes	-3482
▁Projekt	-3483
▁erwar	-3484
▁recommend	-3485
▁Preis	-3486
sere	-3487
racy	-3488
▁costs	-3489
▁above	-3490
▁light	-3491
Was	-3492
▁speak	-3493
▁economy	-3494
ativ	-3495
▁easy	-3496
12	-3497
verb	-3498
ana	-3499
▁Grün	-3500
inge	-3501
▁ihn	-3502
stant	-3503
iberal	-3504
▁Text	-3505
▁Punkt	-3506
▁arch	-3507
▁others	-3508
▁adopted	-3509
▁September	-3510
▁nie	-3511
▁taking	-3512
▁Jahres	-3513
alten	-3514
▁essential	-3515
▁politische	-3516
▁ebenfalls	-3517
ledge	-3518
▁unterschied	-3519
oph	-3520
most	-3521
▁week	-3522
▁Ange	-3523
▁strength	-3524
▁meisten	-3525
anst	-3526
lement	-3527
▁ihm	-3528
ethod	-3529
▁recht	-3530
▁Tür	-3531
▁gemacht	-3532
▁Fraktion	-3533
handlungen	-3534
▁flo	-3535
▁Zugang	-3536
▁creat	-3537
wahl	-3538
▁pa	-3539
▁makes	-3540
▁seinem	-3541
▁ü	-3542
Eine	-3543
unst	-3544
▁viol	-3545
▁content	-3546
▁led	-3547
ators	-3548
za	-3549
▁entire	-3550
▁charac	-3551
▁opinion	-3552
▁dessen	-3553
He	-3554
▁besser	-3555
▁tool	-3556
▁Bezug	-3557
▁Gar	-3558
iben	-3559
▁called	-3560
ports	-3561
iers	-3562
▁bank	-3563
▁verbunden	-3564
▁gehen	-3565
▁verst	-3566
▁darf	-3567
All	-3568
ysteme	-3569
▁Wirtschaft	-3570
▁bath	-3571
bare	-3572
ane	-3573
▁anges	-3574
▁agricult	-3575
▁Sta	-3576
nete	-3577
achten	-3578
reen	-3579
▁return	-3580
▁never	-3581
▁constru	-3582
tag	-3583
▁Ob	-3584
▁legislation	-3585
AL	-3586
▁flex	-3587
▁website	-3588
▁unterstützt	-3589
sh	-3590
▁focus	-3591
▁wesent	-3592
aurants	-3593
Aus	-3594
▁Web	-3595
reicht	-3596
▁Israel	-3597
▁application	-3598
▁They	-3599
Da	-3600
▁term	-3601
word	-3602
gebung	-3603
▁Institution	-3604
iled	-3605
▁ak	-3606
igr	-3607
▁results	-3608
▁Zust	-3609
igital	-3610
▁wahr	-3611
ested	-3612
▁Rechte	-3613
11	-3614
▁App	-3615
▁provides	-3616
▁Kap	-3617
▁sure	-3618
▁points	-3619
ünf	-3620
▁Und	-3621
aged	-3622
▁40	-3623
sweise	-3624
▁darin	-3625
ostel	-3626
aussch	-3627
▁Komp	-3628
▁deliver	-3629
▁freedom	-3630
atis	-3631
▁projects	-3632
▁building	-3633
vernment	-3634
▁due	-3635
▁attention	-3636
arian	-3637
▁fair	-3638
▁policies	-3639
▁beginn	-3640
▁Eine	-3641
▁programm	-3642
benso	-3643
▁concerned	-3644
Nach	-3645
▁Deutschland	-3646
erst	-3647
▁heart	-3648
▁pot	-3649
uz	-3650
▁standard	-3651
▁Entwicklungs	-3652
ül	-3653
▁glaube	-3654
ric	-3655
oting	-3656
▁Priv	-3657
▁responsibility	-3658
▁öffentlichen	-3659
▁past	-3660
iner	-3661
▁simply	-3662
▁risk	-3663
▁beautiful	-3664
irc	-3665
▁Nor	-3666
ufact	-3667
▁dürfen	-3668
▁einigen	-3669
▁derzeit	-3670
▁Antw	-3671
▁cover	-3672
▁appropr	-3673
▁mass	-3674
▁rela	-3675
reiben	-3676
▁nichts	-3677
▁Buch	-3678
now	-3679
mitted	-3680
▁questions	-3681
▁Frei	-3682
ished	-3683
▁What	-3684
▁perfect	-3685
▁schaffen	-3686
berg	-3687
▁Gemeinschaft	-3688
▁groups	-3689
EL	-3690
▁importance	-3691
▁team	-3692
▁young	-3693
▁Millionen	-3694
▁Meer	-3695
zentr	-3696
▁Wasser	-3697
▁2005	-3698
▁Do	-3699
▁Verkehr	-3700
▁dom	-3701
▁Website	-3702
hing	-3703
ients	-3704
wür	-3705
▁Qualität	-3706
▁sollen	-3707
▁War	-3708
▁bit	-3709
▁effective	-3710
▁abge	-3711
▁moder	-3712
bour	-3713
schließlich	-3714
▁society	-3715
ähe	-3716
ding	-3717
ustain	-3718
▁Janu	-3719
ampf	-3720
afen	-3721
ringen	-3722
ceed	-3723
▁Rei	-3724
▁Flug	-3725
▁context	-3726
▁Sa	-3727
▁brauchen	-3728
▁ihrem	-3729
▁head	-3730
▁Beschäft	-3731
▁known	-3732
▁administr	-3733
▁keinen	-3734
▁nationalen	-3735
ada	-3736
▁greater	-3737
rimin	-3738
▁Kolleg	-3739
gesehen	-3740
▁holid	-3741
tlich	-3742
zustellen	-3743
▁sea	-3744
wärt	-3745
▁environmental	-3746
arbeiten	-3747
▁handelt	-3748
▁Pat	-3749
▁strategy	-3750
spolitik	-3751
▁Hö	-3752
▁total	-3753
▁method	-3754
▁continu	-3755
unkte	-3756
▁Mär	-3757
▁Aussprache	-3758
EC	-3759
▁Angeb	-3760
▁Verbraucher	-3761
eiter	-3762
▁TV	-3763
verkehr	-3764
utzt	-3765
istan	-3766
äus	-3767
▁zusätz	-3768
▁Fir	-3769
uelle	-3770
▁version	-3771
▁verbess	-3772
onnen	-3773
▁standards	-3774
emp	-3775
▁natural	-3776
pflicht	-3777
itive	-3778
leben	-3779
▁principle	-3780
▁road	-3781
▁Gl	-3782
iqu	-3783
▁weiterhin	-3784
rieg	-3785
▁Jahrhunder	-3786
unächst	-3787
▁table	-3788
äter	-3789
cen	-3790
ziehen	-3791
▁attra	-3792
▁arr	-3793
▁Früh	-3794
▁verste	-3795
unehmen	-3796
▁na	-3797
▁talk	-3798
▁rad	-3799
▁words	-3800
▁betrifft	-3801
eutet	-3802
▁miss	-3803
hib	-3804
▁send	-3805
▁Ebene	-3806
▁Pra	-3807
▁increasing	-3808
▁To	-3809
uell	-3810
haltung	-3811
ette	-3812
OS	-3813
▁challen	-3814
▁Co	-3815
▁institution	-3816
▁required	-3817
▁Sitz	-3818
frastr	-3819
▁lea	-3820
ning	-3821
ender	-3822
▁Fortsch	-3823
But	-3824
ex	-3825
''	-3826
▁Tre	-3827
acy	-3828
▁versch	-3829
▁central	-3830
▁2004	-3831
▁views	-3832
▁Groß	-3833
unities	-3834
▁heraus	-3835
▁significant	-3836
isiert	-3837
zeichnet	-3838
urf	-3839
▁manufact	-3840
ided	-3841
▁wenig	-3842
ulture	-3843
▁erklär	-3844
wach	-3845
▁reserv	-3846
staat	-3847
▁moment	-3848
▁)	-3849
▁Per	-3850
▁house	-3851
▁II	-3852
Für	-3853
▁bedeutet	-3854
▁Änderungsan	-3855
▁deutlich	-3856
useum	-3857
▁sei	-3858
rach	-3859
▁clearly	-3860
▁training	-3861
▁Verw	-3862
That	-3863
▁Sal	-3864
▁benöt	-3865
▁macht	-3866
stoff	-3867
▁authorities	-3868
▁deshalb	-3869
onen	-3870
▁solche	-3871
▁meeting	-3872
▁Abstimmung	-3873
▁unver	-3874
▁quick	-3875
▁music	-3876
▁Ide	-3877
ban	-3878
▁infl	-3879
term	-3880
cal	-3881
ari	-3882
ims	-3883
▁Christ	-3884
▁besten	-3885
▁don	-3886
änger	-3887
▁Leist	-3888
▁Tats	-3889
▁cla	-3890
läss	-3891
▁Bem	-3892
spruch	-3893
bereit	-3894
▁recent	-3895
Und	-3896
▁parl	-3897
▁demand	-3898
▁user	-3899
▁relax	-3900
▁Gleich	-3901
atal	-3902
bung	-3903
vo	-3904
anze	-3905
icro	-3906
fil	-3907
▁aufgrund	-3908
▁komple	-3909
▁breakfast	-3910
▁pub	-3911
genda	-3912
▁interess	-3913
▁network	-3914
schluss	-3915
▁regional	-3916
▁capital	-3917
▁learn	-3918
ritten	-3919
▁extra	-3920
▁Bezieh	-3921
iting	-3922
rank	-3923
züglich	-3924
▁achieve	-3925
yle	-3926
▁würden	-3927
mals	-3928
▁Gesetz	-3929
▁aspect	-3930
When	-3931
▁lar	-3932
▁wichtige	-3933
▁fa	-3934
▁sour	-3935
aging	-3936
▁night	-3937
äsent	-3938
▁share	-3939
fall	-3940
erous	-3941
▁technical	-3942
▁Gesellschaft	-3943
▁fish	-3944
pril	-3945
▁oft	-3946
cent	-3947
▁distrib	-3948
eg	-3949
gesetzt	-3950
▁pages	-3951
▁according	-3952
uche	-3953
ispielsweise	-3954
▁via	-3955
▁Far	-3956
▁Dok	-3957
▁clean	-3958
ief	-3959
▁nature	-3960
▁Klima	-3961
▁sele	-3962
▁internal	-3963
▁appear	-3964
hörden	-3965
▁Herren	-3966
▁fundamental	-3967
▁longer	-3968
gelegt	-3969
▁directly	-3970
▁Wohn	-3971
jen	-3972
change	-3973
ones	-3974
▁facilities	-3975
▁Umsetzung	-3976
▁side	-3977
▁findet	-3978
▁months	-3979
▁Menschenrechte	-3980
AP	-3981
ri	-3982
▁Schul	-3983
▁though	-3984
▁Design	-3985
▁prec	-3986
▁employment	-3987
platz	-3988
▁Cont	-3989
▁verein	-3990
▁nächsten	-3991
▁proposed	-3992
▁Kunst	-3993
▁enough	-3994
▁Mitarbeit	-3995
wohn	-3996
▁obl	-3997
▁imm	-3998
▁solutions	-3999
▁responsible	-4000
▁  	-4001
▁Bevölk	-4002
örderung	-4003
elves	-4004
AD	-4005
Ab	-4006
unch	-4007
▁ern	-4008
/200	-4009
▁Ansicht	-4010
▁gewährle	-4011
kämp	-4012
▁Cas	-4013
▁cultural	-4014
▁Viel	-4015
heim	-4016
▁history	-4017
▁My	-4018
▁23	-4019
▁vorgesch	-4020
elbst	-4021
▁erne	-4022
▁interests	-4023
▁Richtung	-4024
▁Betrie	-4025
gency	-4026
▁subs	-4027
60	-4028
▁Sub	-4029
▁guests	-4030
▁Ju	-4031
▁nutzen	-4032
▁Demokratie	-4033
▁requirements	-4034
▁Dar	-4035
▁test	-4036
▁vol	-4037
ption	-4038
▁currently	-4039
▁character	-4040
▁lange	-4041
▁Japan	-4042
ffe	-4043
orted	-4044
US	-4045
▁betre	-4046
▁prevent	-4047
▁maintain	-4048
▁November	-4049
ker	-4050
▁vier	-4051
▁civil	-4052
frist	-4053
IC	-4054
ließlich	-4055
▁Nähe	-4056
▁regions	-4057
umente	-4058
ither	-4059
▁Bro	-4060
▁events	-4061
▁Windows	-4062
▁Industrie	-4063
Ne	-4064
▁assist	-4065
▁terror	-4066
gent	-4067
Our	-4068
ables	-4069
tes	-4070
istischen	-4071
▁allerdings	-4072
▁thems	-4073
▁mount	-4074
▁involved	-4075
▁Ira	-4076
gru	-4077
▁themselves	-4078
ube	-4079
drück	-4080
▁sustain	-4081
verständ	-4082
▁These	-4083
▁parties	-4084
▁Hier	-4085
▁Brit	-4086
▁Dank	-4087
▁apply	-4088
▁illeg	-4089
▁web	-4090
▁sy	-4091
▁Verantwortung	-4092
▁Bü	-4093
ellen	-4094
stehen	-4095
▁bil	-4096
▁recogn	-4097
wirkungen	-4098
▁anim	-4099
▁needed	-4100
▁zie	-4101
ench	-4102
Fin	-4103
lauf	-4104
▁Ha	-4105
▁Insel	-4106
▁competition	-4107
▁Bedingungen	-4108
▁live	-4109
▁happen	-4110
esented	-4111
llig	-4112
▁Wachst	-4113
▁hoffe	-4114
▁foreign	-4115
▁Anwendung	-4116
▁Stat	-4117
▁gegeben	-4118
▁extremely	-4119
aper	-4120
▁Besuch	-4121
teile	-4122
▁Struktur	-4123
▁voted	-4124
irt	-4125
richtung	-4126
▁implementation	-4127
▁gemeinsamen	-4128
▁force	-4129
dam	-4130
folgt	-4131
cies	-4132
▁Entscheidung	-4133
▁Dr	-4134
▁Wert	-4135
▁request	-4136
▁Fehl	-4137
▁democracy	-4138
▁notwendig	-4139
▁Sol	-4140
val	-4141
▁station	-4142
iellen	-4143
bank	-4144
▁April	-4145
cke	-4146
mbH	-4147
▁efforts	-4148
▁century	-4149
▁guarantee	-4150
▁Gebiet	-4151
▁beispielsweise	-4152
▁upon	-4153
▁fight	-4154
ta	-4155
▁Ziele	-4156
▁camp	-4157
▁jeweil	-4158
ele	-4159
▁Raum	-4160
▁item	-4161
has	-4162
ürz	-4163
▁language	-4164
ired	-4165
ommod	-4166
hem	-4167
enken	-4168
▁kont	-4169
uk	-4170
▁ago	-4171
▁dank	-4172
▁Benutz	-4173
▁Tages	-4174
peten	-4175
▁gehört	-4176
▁AG	-4177
ynam	-4178
▁Kar	-4179
▁bedeut	-4180
üssel	-4181
▁Interesse	-4182
▁wohl	-4183
linien	-4184
▁Vorschläge	-4185
▁changes	-4186
bel	-4187
▁Kons	-4188
▁caus	-4189
▁vielleicht	-4190
▁kleinen	-4191
ienen	-4192
▁Auss	-4193
ublik	-4194
▁sozialen	-4195
▁Bau	-4196
▁Grundlage	-4197
▁Druck	-4198
obile	-4199
▁prep	-4200
▁May	-4201
inzip	-4202
▁please	-4203
▁2.	-4204
estern	-4205
▁disk	-4206
trie	-4207
15	-4208
▁Pf	-4209
lied	-4210
▁mat	-4211
▁erziel	-4212
▁GmbH	-4213
▁expect	-4214
▁charge	-4215
▁enthalten	-4216
▁low	-4217
▁demokrat	-4218
▁verwendet	-4219
▁circ	-4220
▁contain	-4221
▁If	-4222
▁developed	-4223
▁separ	-4224
key	-4225
atory	-4226
▁Parte	-4227
▁22	-4228
▁wind	-4229
▁Erfolg	-4230
Als	-4231
▁Ihrem	-4232
▁sprechen	-4233
▁ermöglich	-4234
igur	-4235
rup	-4236
grif	-4237
▁zust	-4238
igungs	-4239
▁bevor	-4240
▁corre	-4241
▁farm	-4242
▁regulation	-4243
ano	-4244
ragen	-4245
▁2003	-4246
-,	-4247
vert	-4248
▁Nord	-4249
▁neu	-4250
▁197	-4251
▁Zus	-4252
amous	-4253
jekte	-4254
▁protect	-4255
schn	-4256
sichtlich	-4257
▁Verfahren	-4258
▁Wort	-4259
▁Paris	-4260
13	-4261
▁Außen	-4262
▁soon	-4263
deut	-4264
ork	-4265
onstr	-4266
▁lot	-4267
chs	-4268
würd	-4269
▁erreicht	-4270
▁Reihe	-4271
▁Damen	-4272
▁ö	-4273
▁Soc	-4274
▁Musik	-4275
▁comfortable	-4276
▁Einsatz	-4277
ama	-4278
▁cases	-4279
tended	-4280
▁mess	-4281
lling	-4282
▁Geschichte	-4283
best	-4284
▁pool	-4285
andid	-4286
▁negotiations	-4287
uct	-4288
handlung	-4289
bl	-4290
nehm	-4291
crib	-4292
ffice	-4293
gliche	-4294
▁werde	-4295
ips	-4296
▁Ir	-4297
▁maxim	-4298
play	-4299
▁berücksicht	-4300
▁Stre	-4301
immungen	-4302
▁situated	-4303
▁comes	-4304
▁halten	-4305
▁Krit	-4306
UT	-4307
▁targe	-4308
▁Restaurant	-4309
▁nam	-4310
▁Tele	-4311
orge	-4312
▁either	-4313
ense	-4314
teilt	-4315
▁markets	-4316
▁previous	-4317
▁Möglichkeiten	-4318
▁Jun	-4319
▁Bil	-4320
ipped	-4321
▁erfü	-4322
dle	-4323
arbeitung	-4324
ätzen	-4325
▁Date	-4326
▁Frieden	-4327
▁restaurant	-4328
teilen	-4329
▁einges	-4330
merksam	-4331
▁Cour	-4332
▁Heraus	-4333
▁Alle	-4334
hend	-4335
hes	-4336
itionen	-4337
▁Prot	-4338
prise	-4339
urt	-4340
▁developing	-4341
▁Einz	-4342
▁Debatte	-4343
ood	-4344
▁Netz	-4345
gern	-4346
▁everything	-4347
aler	-4348
▁übern	-4349
▁Wie	-4350
inner	-4351
▁indic	-4352
▁Blick	-4353
▁Trans	-4354
bildung	-4355
▁created	-4356
▁Eur	-4357
ump	-4358
▁ausgest	-4359
▁Russia	-4360
▁minim	-4361
geln	-4362
abel	-4363
zeigt	-4364
stall	-4365
auen	-4366
▁Wieder	-4367
▁final	-4368
▁surround	-4369
▁Erweit	-4370
TO	-4371
RO	-4372
istet	-4373
▁Aug	-4374
date	-4375
▁arbeiten	-4376
▁unique	-4377
▁improve	-4378
▁fünf	-4379
▁Arbeitspl	-4380
▁states	-4381
▁amb	-4382
Bei	-4383
▁Hinblick	-4384
erseits	-4385
▁höch	-4386
ging	-4387
▁Will	-4388
attet	-4389
▁könnten	-4390
▁Presidency	-4391
▁vorgeschlagen	-4392
▁Mot	-4393
▁later	-4394
▁France	-4395
▁verschiedene	-4396
▁prices	-4397
rieben	-4398
schriften	-4399
▁mer	-4400
mut	-4401
▁pict	-4402
▁Just	-4403
▁schwier	-4404
spräsident	-4405
▁education	-4406
mark	-4407
▁Erklär	-4408
anten	-4409
▁accommod	-4410
▁Schwe	-4411
▁South	-4412
iable	-4413
▁60	-4414
unik	-4415
▁Aktiv	-4416
Aber	-4417
▁immed	-4418
▁true	-4419
▁konkre	-4420
int	-4421
▁additional	-4422
▁Steuer	-4423
ichen	-4424
▁almost	-4425
▁altern	-4426
haft	-4427
haps	-4428
▁bleiben	-4429
▁gemeinsame	-4430
▁included	-4431
ka	-4432
▁monitor	-4433
▁democratic	-4434
eless	-4435
▁French	-4436
▁living	-4437
ulate	-4438
▁thus	-4439
▁verfügt	-4440
ipment	-4441
▁que	-4442
▁analys	-4443
▁cut	-4444
▁stor	-4445
▁actually	-4446
chnik	-4447
onn	-4448
igte	-4449
vin	-4450
▁ermöglicht	-4451
▁contract	-4452
▁Mont	-4453
▁climate	-4454
▁fort	-4455
▁idea	-4456
bahn	-4457
▁Institutionen	-4458
▁Auswirkungen	-4459
▁Minuten	-4460
IP	-4461
pendent	-4462
ibr	-4463
ißt	-4464
▁seen	-4465
▁Diskuss	-4466
rad	-4467
rechts	-4468
▁travel	-4469
ingt	-4470
1,	-4471
▁wide	-4472
▁file	-4473
▁Integr	-4474
▁Nicht	-4475
gegen	-4476
▁document	-4477
▁Mod	-4478
wegen	-4479
ielle	-4480
ikt	-4481
▁Hoch	-4482
▁encour	-4483
ommer	-4484
▁program	-4485
▁join	-4486
▁lack	-4487
▁Aff	-4488
▁akzept	-4489
orf	-4490
lack	-4491
▁Kraft	-4492
▁hatten	-4493
▁receive	-4494
▁tats	-4495
ental	-4496
▁Prozess	-4497
▁Wissen	-4498
jenigen	-4499
▁hold	-4500
▁Platz	-4501
Le	-4502
▁vollständ	-4503
▁Rechn	-4504
Man	-4505
laden	-4506
▁knowledge	-4507
ilar	-4508
ires	-4509
mail	-4510
▁Plan	-4511
▁Bre	-4512
▁Strategie	-4513
▁type	-4514
▁zeigt	-4515
▁appropriate	-4516
kra	-4517
▁dialog	-4518
▁EC	-4519
▁erforderlich	-4520
rachten	-4521
ester	-4522
barkeit	-4523
▁funds	-4524
▁Lis	-4525
▁führt	-4526
hinder	-4527
ios	-4528
▁schein	-4529
▁bisher	-4530
▁Prof	-4531
▁held	-4532
▁official	-4533
▁enl	-4534
frei	-4535
usst	-4536
▁Forschung	-4537
▁Sport	-4538
mm	-4539
▁Sicherheits	-4540
▁Auch	-4541
▁vill	-4542
▁Ausdruck	-4543
▁euro	-4544
▁Öff	-4545
▁procedure	-4546
▁allgemein	-4547
setzen	-4548
▁Landes	-4549
adurch	-4550
▁gesamten	-4551
▁happ	-4552
zer	-4553
▁outside	-4554
▁assoc	-4555
▁Regionen	-4556
folgen	-4557
▁Abgeordneten	-4558
▁Kir	-4559
▁Kle	-4560
▁Kolleginnen	-4561
auber	-4562
.00	-4563
▁Ergebnis	-4564
iance	-4565
▁erwä	-4566
▁thing	-4567
ctors	-4568
anced	-4569
▁angeb	-4570
:00	-4571
feld	-4572
Europ	-4573
▁designed	-4574
▁publish	-4575
▁workers	-4576
ternal	-4577
▁einzelnen	-4578
▁school	-4579
▁Webs	-4580
▁ebenso	-4581
▁darum	-4582
▁suggest	-4583
ams	-4584
▁propert	-4585
▁Änderungsantrag	-4586
atisf	-4587
▁funktion	-4588
lle	-4589
▁rate	-4590
▁majority	-4591
stead	-4592
fragen	-4593
oper	-4594
▁Vertre	-4595
▁features	-4596
ko	-4597
öglichen	-4598
▁danken	-4599
ießen	-4600
▁famous	-4601
▁professional	-4602
ogra	-4603
ählt	-4604
iews	-4605
▁Schritt	-4606
fs	-4607
▁relev	-4608
▁später	-4609
▁Familien	-4610
▁entwickelt	-4611
▁Frühstück	-4612
▁hon	-4613
imme	-4614
▁Iran	-4615
clud	-4616
Hotel	-4617
ondon	-4618
▁throughout	-4619
cep	-4620
va	-4621
jähr	-4622
▁Funktion	-4623
▁early	-4624
isieren	-4625
▁communication	-4626
▁Kön	-4627
fel	-4628
▁Arch	-4629
▁Binnen	-4630
▁draw	-4631
▁denke	-4632
▁Portug	-4633
▁answer	-4634
otos	-4635
▁cop	-4636
▁five	-4637
änden	-4638
▁looking	-4639
igration	-4640
▁angenommen	-4641
des	-4642
ußerdem	-4643
ländern	-4644
▁exclus	-4645
▁Tatsache	-4646
▁Hers	-4647
mitteln	-4648
▁27	-4649
orre	-4650
▁Rad	-4651
indest	-4652
▁impact	-4653
▁customer	-4654
▁Ant	-4655
verfahren	-4656
▁betra	-4657
ässt	-4658
▁behand	-4659
▁American	-4660
oid	-4661
iens	-4662
▁emphas	-4663
ET	-4664
Deshalb	-4665
▁takes	-4666
▁transl	-4667
▁download	-4668
▁space	-4669
▁doing	-4670
▁hours	-4671
fähigkeit	-4672
▁works	-4673
kämpfung	-4674
▁potential	-4675
▁across	-4676
.000	-4677
▁Mitglieder	-4678
▁strengthen	-4679
ound	-4680
cer	-4681
▁wider	-4682
▁Bereichen	-4683
▁normal	-4684
▁enable	-4685
arbeitet	-4686
▁Verhandlungen	-4687
▁certainly	-4688
▁jedem	-4689
▁internationale	-4690
ändert	-4691
▁000	-4692
▁links	-4693
ült	-4694
▁ever	-4695
pression	-4696
▁Fund	-4697
▁univers	-4698
▁Gemeinschafts	-4699
▁Version	-4700
▁consequ	-4701
▁date	-4702
▁proper	-4703
▁parts	-4704
▁West	-4705
▁weiß	-4706
cure	-4707
▁hätte	-4708
äche	-4709
▁Ris	-4710
▁gemeinsam	-4711
▁konnte	-4712
Auch	-4713
liegen	-4714
▁befinden	-4715
▁General	-4716
kn	-4717
▁aud	-4718
ielt	-4719
▁Währ	-4720
schlag	-4721
kr	-4722
▁äußer	-4723
▁colleag	-4724
▁Antwort	-4725
▁solid	-4726
zif	-4727
▁Vereinigten	-4728
uren	-4729
▁guest	-4730
▁users	-4731
▁vorh	-4732
▁Beg	-4733
onom	-4734
▁Staats	-4735
▁Tod	-4736
▁Position	-4737
▁setzen	-4738
▁traditional	-4739
ille	-4740
▁investment	-4741
aly	-4742
▁gleichzeitig	-4743
▁ca	-4744
ösen	-4745
▁Dialog	-4746
▁neues	-4747
▁took	-4748
Ar	-4749
▁Luft	-4750
▁mechan	-4751
ällen	-4752
▁weiteren	-4753
hab	-4754
ini	-4755
▁Beziehungen	-4756
bru	-4757
▁North	-4758
▁record	-4759
AM	-4760
After	-4761
▁divers	-4762
▁umfassen	-4763
▁erhö	-4764
chsel	-4765
▁concerns	-4766
▁Bevölkerung	-4767
▁existing	-4768
erei	-4769
stre	-4770
▁eth	-4771
▁Handels	-4772
▁resol	-4773
▁Aber	-4774
▁amount	-4775
▁complex	-4776
▁eigent	-4777
▁Zentrum	-4778
▁1,	-4779
▁hinter	-4780
AC	-4781
ügen	-4782
▁heißt	-4783
/9	-4784
▁programmes	-4785
Frau	-4786
▁erhe	-4787
ara	-4788
▁2002	-4789
▁original	-4790
hung	-4791
teid	-4792
ias	-4793
▁connection	-4794
uted	-4795
kei	-4796
oking	-4797
▁Werk	-4798
▁cross	-4799
▁zuf	-4800
▁Führ	-4801
halte	-4802
▁Dec	-4803
▁Abkommen	-4804
äss	-4805
▁London	-4806
ava	-4807
▁search	-4808
alter	-4809
▁Mil	-4810
griff	-4811
▁lat	-4812
▁relig	-4813
▁neben	-4814
▁mentioned	-4815
▁August	-4816
And	-4817
▁concerning	-4818
sehen	-4819
Pr	-4820
▁Interessen	-4821
länder	-4822
oms	-4823
▁Pak	-4824
▁model	-4825
fortun	-4826
▁Kos	-4827
▁Vertra	-4828
▁although	-4829
▁Programme	-4830
lang	-4831
▁tele	-4832
▁jede	-4833
▁writing	-4834
▁parliament	-4835
▁reasons	-4836
ande	-4837
▁helfen	-4838
▁lux	-4839
▁absolute	-4840
▁vö	-4841
▁Proz	-4842
ush	-4843
▁aktiv	-4844
affung	-4845
▁Beitrag	-4846
▁Süd	-4847
▁Terror	-4848
▁demonstr	-4849
▁Court	-4850
richtungen	-4851
▁decisions	-4852
ball	-4853
▁Cor	-4854
▁Dis	-4855
▁aware	-4856
▁leading	-4857
▁Government	-4858
▁card	-4859
▁completely	-4860
hlen	-4861
▁Fern	-4862
face	-4863
▁Handel	-4864
▁built	-4865
▁nothing	-4866
ipl	-4867
▁Türkei	-4868
▁gegenwärt	-4869
▁Förderung	-4870
ature	-4871
▁related	-4872
range	-4873
ole	-4874
▁joint	-4875
temp	-4876
▁80	-4877
ox	-4878
▁Kontrolle	-4879
▁Flugh	-4880
▁gelten	-4881
▁Aufgabe	-4882
▁Verpflicht	-4883
esserung	-4884
▁extens	-4885
ayer	-4886
▁beit	-4887
▁game	-4888
▁gestellt	-4889
aring	-4890
▁community	-4891
▁Schlussel	-4892
▁half	-4893
▁Turkey	-4894
zös	-4895
▁empf	-4896
arity	-4897
ED	-4898
▁wichtigen	-4899
▁rund	-4900
▁intens	-4901
▁conflic	-4902
üsse	-4903
ID	-4904
▁friendly	-4905
iddle	-4906
▁kleine	-4907
formen	-4908
esh	-4909
▁Liste	-4910
▁meinen	-4911
▁America	-4912
▁unseres	-4913
Te	-4914
▁basic	-4915
▁PC	-4916
▁enlarge	-4917
▁assess	-4918
ba	-4919
amera	-4920
▁committee	-4921
▁Themen	-4922
▁Stabil	-4923
▁prakt	-4924
more	-4925
▁Pa	-4926
18	-4927
▁Fuß	-4928
una	-4929
▁English	-4930
▁Online	-4931
▁culture	-4932
orten	-4933
▁Wettbewerbs	-4934
▁CD	-4935
▁practice	-4936
▁front	-4937
▁holiday	-4938
uffer	-4939
▁Verbindung	-4940
odell	-4941
▁population	-4942
quis	-4943
▁military	-4944
führen	-4945
▁schwer	-4946
▁Erweiterung	-4947
ological	-4948
▁includes	-4949
▁agreements	-4950
grat	-4951
SE	-4952
lant	-4953
▁digital	-4954
▁internet	-4955
▁spr	-4956
▁Inform	-4957
▁verd	-4958
▁Kampf	-4959
▁Hol	-4960
gl	-4961
lies	-4962
itable	-4963
▁consult	-4964
▁liegen	-4965
gangenen	-4966
▁becom	-4967
fluss	-4968
▁allows	-4969
▁gab	-4970
inden	-4971
termin	-4972
▁media	-4973
▁gestimmt	-4974
▁Mor	-4975
spe	-4976
▁oblig	-4977
wie	-4978
nissen	-4979
▁erinn	-4980
▁spezie	-4981
alien	-4982
bedingungen	-4983
▁commer	-4984
statt	-4985
▁Ausschusses	-4986
Mail	-4987
▁jedes	-4988
▁objectives	-4989
enk	-4990
▁Einzel	-4991
zunehmen	-4992
▁Sy	-4993
▁advant	-4994
ying	-4995
▁conclus	-4996
▁bleibt	-4997
▁body	-4998
▁choice	-4999
licken	-5000
zeugen	-5001
▁err	-5002
ills	-5003
▁Reform	-5004
▁bekommen	-5005
▁-,	-5006
▁wa	-5007
iterran	-5008
itness	-5009
▁Barcel	-5010
Am	-5011
▁received	-5012
▁Selbst	-5013
▁wegen	-5014
Hier	-5015
▁values	-5016
▁jobs	-5017
▁wün	-5018
älle	-5019
▁Verordnung	-5020
▁simple	-5021
▁Entschließung	-5022
uck	-5023
annte	-5024
iated	-5025
▁emer	-5026
osen	-5027
amit	-5028
rachen	-5029
▁transfer	-5030
ovo	-5031
▁nahe	-5032
agn	-5033
ahren	-5034
vement	-5035
struments	-5036
ending	-5037
▁Konferenz	-5038
▁fail	-5039
▁satisf	-5040
ooking	-5041
este	-5042
▁established	-5043
▁warm	-5044
▁1999	-5045
ason	-5046
.,	-5047
▁poor	-5048
▁bess	-5049
▁angem	-5050
▁prim	-5051
▁Volk	-5052
▁Als	-5053
▁computer	-5054
▁Nutzung	-5055
▁plann	-5056
▁arg	-5057
▁equipment	-5058
gn	-5059
geschlossen	-5060
▁package	-5061
minister	-5062
▁richtig	-5063
Ob	-5064
ördern	-5065
▁Please	-5066
mbol	-5067
▁Febru	-5068
▁regarding	-5069
▁capac	-5070
▁Lisbon	-5071
▁sag	-5072
▁Behörden	-5073
▁performance	-5074
rab	-5075
ourn	-5076
▁move	-5077
ikanischen	-5078
▁center	-5079
pite	-5080
▁harmon	-5081
▁Da	-5082
abon	-5083
▁lok	-5084
▁applications	-5085
öst	-5086
▁wunder	-5087
▁gerne	-5088
▁Strand	-5089
▁jud	-5090
▁erlaub	-5091
▁IS	-5092
sitz	-5093
pass	-5094
ico	-5095
▁wichtigsten	-5096
▁attack	-5097
lla	-5098
▁durchge	-5099
len	-5100
vious	-5101
ennung	-5102
▁initi	-5103
▁verantwort	-5104
▁Augen	-5105
▁files	-5106
▁image	-5107
▁agricultural	-5108
pected	-5109
▁pleas	-5110
These	-5111
▁Liss	-5112
▁Volks	-5113
▁purch	-5114
uclear	-5115
▁objective	-5116
essour	-5117
▁broad	-5118
▁unabhäng	-5119
oo	-5120
erve	-5121
▁sun	-5122
,000	-5123
▁quickly	-5124
▁Kop	-5125
▁Aufent	-5126
icles	-5127
Ge	-5128
▁Apart	-5129
▁credit	-5130
ery	-5131
inne	-5132
▁mehrere	-5133
▁hinsichtlich	-5134
▁Krise	-5135
▁Notwend	-5136
▁reports	-5137
▁Mitarbeiter	-5138
▁Forder	-5139
▁stop	-5140
▁cru	-5141
▁See	-5142
▁face	-5143
▁Home	-5144
▁herr	-5145
▁goods	-5146
osed	-5147
▁keyword	-5148
▁below	-5149
▁sound	-5150
▁wonder	-5151
gesamt	-5152
▁Pass	-5153
▁Wel	-5154
▁Affairs	-5155
▁How	-5156
▁Verbesserung	-5157
imension	-5158
öhn	-5159
▁ganze	-5160
▁ganzen	-5161
▁fran	-5162
▁Urlaub	-5163
▁einger	-5164
▁Reise	-5165
stellungen	-5166
▁nachhalt	-5167
▁party	-5168
omb	-5169
seit	-5170
wide	-5171
▁wobei	-5172
▁IT	-5173
▁Lux	-5174
chter	-5175
gef	-5176
ros	-5177
undes	-5178
▁industrial	-5179
emb	-5180
▁Gruppe	-5181
▁south	-5182
They	-5183
ften	-5184
▁ermöglichen	-5185
▁leaders	-5186
▁self	-5187
mann	-5188
brigen	-5189
▁benefit	-5190
▁trotz	-5191
▁Lissabon	-5192
▁experien	-5193
ernen	-5194
▁note	-5195
▁enthält	-5196
▁sense	-5197
▁Auswahl	-5198
▁huge	-5199
▁popular	-5200
ps	-5201
▁Wochen	-5202
▁Du	-5203
▁option	-5204
▁achieved	-5205
teller	-5206
erc	-5207
aving	-5208
▁treatment	-5209
▁contains	-5210
▁schön	-5211
dom	-5212
▁Ober	-5213
▁code	-5214
▁High	-5215
▁seems	-5216
▁One	-5217
40	-5218
entwick	-5219
▁Frankreich	-5220
▁Sup	-5221
▁When	-5222
schließend	-5223
▁Veranst	-5224
▁initiative	-5225
▁indeed	-5226
▁passen	-5227
lassen	-5228
lam	-5229
otion	-5230
▁garant	-5231
iveness	-5232
sterreich	-5233
wander	-5234
▁rail	-5235
▁Che	-5236
opping	-5237
▁beein	-5238
▁Binnenmarkt	-5239
erweise	-5240
▁Ukra	-5241
▁leben	-5242
▁zeigen	-5243
▁recently	-5244
17	-5245
äum	-5246
▁Wachstum	-5247
▁Schaffung	-5248
▁Prior	-5249
▁grund	-5250
▁ill	-5251
istische	-5252
möglichkeit	-5253
eden	-5254
▁Gelegenheit	-5255
▁Ze	-5256
▁Dokument	-5257
▁East	-5258
▁Sant	-5259
▁Bad	-5260
▁spac	-5261
▁los	-5262
put	-5263
Dar	-5264
▁correct	-5265
▁Gree	-5266
▁carry	-5267
mor	-5268
▁vict	-5269
Pl	-5270
▁engine	-5271
▁double	-5272
▁congrat	-5273
▁City	-5274
▁mittel	-5275
itect	-5276
▁veh	-5277
▁beginning	-5278
kennen	-5279
▁dialogue	-5280
iment	-5281
ienste	-5282
▁highly	-5283
VD	-5284
stens	-5285
itel	-5286
oppel	-5287
▁ruh	-5288
▁Macht	-5289
jahr	-5290
▁levels	-5291
fonds	-5292
such	-5293
haupt	-5294
fon	-5295
▁frü	-5296
▁spielen	-5297
▁oil	-5298
▁floor	-5299
▁Gebä	-5300
▁Serv	-5301
pid	-5302
▁efficient	-5303
▁presented	-5304
▁nice	-5305
▁series	-5306
wertungen	-5307
▁Rel	-5308
▁heut	-5309
ßt	-5310
nern	-5311
▁everyone	-5312
▁völlig	-5313
▁scient	-5314
stances	-5315
▁governments	-5316
▁integration	-5317
▁equipped	-5318
▁successful	-5319
tliche	-5320
▁garden	-5321
RE	-5322
ostels	-5323
▁Bef	-5324
ätigkeit	-5325
vorschriften	-5326
▁click	-5327
▁Verwendung	-5328
▁Fach	-5329
▁verbessern	-5330
icien	-5331
▁Link	-5332
▁Ergebnisse	-5333
▁active	-5334
Madam	-5335
▁comprom	-5336
▁Notwendigkeit	-5337
▁Club	-5338
▁Angebot	-5339
fortunately	-5340
▁exchange	-5341
lace	-5342
▁Barcelona	-5343
▁einzig	-5344
ffiz	-5345
▁ut	-5346
▁super	-5347
fordert	-5348
▁red	-5349
▁kulture	-5350
▁Gewalt	-5351
PE	-5352
▁lässt	-5353
▁increased	-5354
▁grundlegen	-5355
ley	-5356
▁Wenn	-5357
▁carried	-5358
organis	-5359
mehr	-5360
▁furn	-5361
▁Management	-5362
anzen	-5363
▁whose	-5364
onse	-5365
▁Amster	-5366
▁frei	-5367
OL	-5368
will	-5369
iko	-5370
▁consumers	-5371
▁stage	-5372
ering	-5373
▁Imp	-5374
▁Chin	-5375
abor	-5376
▁principles	-5377
▁21	-5378
▁tw	-5379
isted	-5380
örper	-5381
▁Tage	-5382
▁Anzahl	-5383
▁Kern	-5384
schw	-5385
umb	-5386
▁Team	-5387
lier	-5388
ützen	-5389
▁age	-5390
▁block	-5391
▁agreed	-5392
▁Social	-5393
just	-5394
▁guten	-5395
▁higher	-5396
▁soziale	-5397
▁gefähr	-5398
atell	-5399
ued	-5400
aufen	-5401
unt	-5402
lass	-5403
▁Zeitpunkt	-5404
▁eigene	-5405
▁Vis	-5406
▁Material	-5407
▁verwenden	-5408
▁dre	-5409
▁Woche	-5410
die	-5411
▁sex	-5412
hoben	-5413
imming	-5414
aint	-5415
▁verfügen	-5416
action	-5417
Ch	-5418
▁dang	-5419
▁sent	-5420
▁großer	-5421
pose	-5422
▁office	-5423
▁June	-5424
▁Imm	-5425
IL	-5426
utt	-5427
▁amendment	-5428
▁Liefer	-5429
▁reviews	-5430
▁Standard	-5431
▁bathroom	-5432
▁stra	-5433
▁asked	-5434
▁profit	-5435
▁direction	-5436
wise	-5437
▁verg	-5438
▁coll	-5439
▁rat	-5440
anner	-5441
ends	-5442
▁Anfang	-5443
▁häuf	-5444
buch	-5445
▁expl	-5446
What	-5447
atic	-5448
▁subsid	-5449
loyment	-5450
ania	-5451
icherung	-5452
IM	-5453
▁commercial	-5454
ja	-5455
aschinen	-5456
ape	-5457
▁choose	-5458
▁Central	-5459
▁exc	-5460
▁supply	-5461
▁seek	-5462
▁traff	-5463
▁commitment	-5464
griffen	-5465
▁meinem	-5466
inger	-5467
▁similar	-5468
▁verfüg	-5469
▁fördern	-5470
▁six	-5471
▁Pan	-5472
▁28	-5473
▁Voraus	-5474
▁Global	-5475
bie	-5476
▁Tro	-5477
usion	-5478
atast	-5479
▁diskut	-5480
▁schö	-5481
scht	-5482
apt	-5483
▁obtain	-5484
xis	-5485
▁anzu	-5486
▁perhaps	-5487
▁tell	-5488
mitt	-5489
▁künft	-5490
▁Personal	-5491
▁zunächst	-5492
▁shows	-5493
▁gesamte	-5494
verständlich	-5495
iglich	-5496
▁Mag	-5497
▁Lösungen	-5498
▁Produktion	-5499
▁pan	-5500
▁rates	-5501
▁Bud	-5502
▁mal	-5503
▁Miss	-5504
▁matters	-5505
▁aspects	-5506
▁With	-5507
▁influen	-5508
▁news	-5509
▁avoid	-5510
▁gehören	-5511
▁obs	-5512
▁Innov	-5513
▁added	-5514
▁stress	-5515
▁Berg	-5516
▁shown	-5517
▁Jugend	-5518
▁atmosph	-5519
▁Les	-5520
▁Integration	-5521
ängt	-5522
▁gleichen	-5523
▁Ho	-5524
▁Tat	-5525
▁nuclear	-5526
▁500	-5527
klus	-5528
ufficient	-5529
Dieses	-5530
▁Leg	-5531
▁rein	-5532
▁innovative	-5533
▁promote	-5534
standen	-5535
▁bi	-5536
▁Beschäftigung	-5537
▁Wein	-5538
▁former	-5539
äst	-5540
▁Män	-5541
osp	-5542
fält	-5543
▁came	-5544
▁thanks	-5545
▁dynam	-5546
▁vorhanden	-5547
▁Post	-5548
▁tatsächlich	-5549
▁considered	-5550
▁Maß	-5551
pflich	-5552
▁Amend	-5553
greifen	-5554
First	-5555
ency	-5556
▁Solid	-5557
▁speed	-5558
▁gelegen	-5559
▁ständ	-5560
▁Krieg	-5561
irit	-5562
▁hotels	-5563
▁sorgen	-5564
Finally	-5565
iles	-5566
ki	-5567
▁Änderungen	-5568
cks	-5569
▁effects	-5570
14	-5571
▁lik	-5572
akter	-5573
▁veröffent	-5574
▁possibility	-5575
▁latest	-5576
essourcen	-5577
▁Akt	-5578
artige	-5579
▁eindeut	-5580
▁opportunities	-5581
lös	-5582
öffnet	-5583
▁Russland	-5584
2.	-5585
▁geführt	-5586
▁verstär	-5587
2,	-5588
▁Initiative	-5589
fahrt	-5590
ously	-5591
▁Herzen	-5592
▁Mehrheit	-5593
▁Beschl	-5594
ierenden	-5595
▁Bra	-5596
▁Ham	-5597
owers	-5598
ored	-5599
▁behind	-5600
▁Erfahrung	-5601
li	-5602
▁Mac	-5603
▁Balk	-5604
▁Stellung	-5605
ächt	-5606
ausch	-5607
cript	-5608
▁erk	-5609
▁depend	-5610
zub	-5611
▁condition	-5612
ausschuss	-5613
▁ernst	-5614
ology	-5615
▁sofort	-5616
▁Regierungen	-5617
▁entwickeln	-5618
▁Eigen	-5619
▁materials	-5620
▁Einführung	-5621
▁draft	-5622
where	-5623
Sh	-5624
icy	-5625
és	-5626
okoll	-5627
otes	-5628
▁setting	-5629
▁reached	-5630
astic	-5631
▁phys	-5632
▁af	-5633
▁Business	-5634
▁Nieder	-5635
▁providing	-5636
arent	-5637
▁Ratspräsident	-5638
▁creation	-5639
itting	-5640
▁review	-5641
ühm	-5642
▁größten	-5643
▁easily	-5644
▁Program	-5645
oz	-5646
ilen	-5647
▁äußerst	-5648
▁accommodation	-5649
▁verstehen	-5650
alu	-5651
▁external	-5652
▁Republic	-5653
bre	-5654
▁Organisation	-5655
unsch	-5656
▁leicht	-5657
▁atmosphere	-5658
▁Leit	-5659
gene	-5660
▁summer	-5661
▁prepared	-5662
▁response	-5663
▁relevant	-5664
▁death	-5665
riften	-5666
▁Golf	-5667
iction	-5668
▁Ferien	-5669
zeugt	-5670
▁reduce	-5671
▁size	-5672
▁Cons	-5673
▁Juni	-5674
▁König	-5675
▁hoff	-5676
arily	-5677
▁criter	-5678
▁somit	-5679
▁exhib	-5680
idel	-5681
▁deta	-5682
▁schle	-5683
▁Lauf	-5684
kraft	-5685
▁sustainable	-5686
▁196	-5687
▁Net	-5688
▁gewährleisten	-5689
▁Log	-5690
▁lediglich	-5691
Alle	-5692
▁pressure	-5693
entlich	-5694
▁decided	-5695
▁Dez	-5696
▁hohen	-5697
▁Ru	-5698
uffet	-5699
▁geschlossen	-5700
rechend	-5701
uel	-5702
▁prepar	-5703
▁elekt	-5704
ney	-5705
▁capacity	-5706
istics	-5707
▁90	-5708
▁condu	-5709
▁verpflich	-5710
▁Konfl	-5711
▁Umgebung	-5712
quare	-5713
▁Convention	-5714
▁gebracht	-5715
▁Lat	-5716
ummer	-5717
hil	-5718
▁Spain	-5719
uern	-5720
▁Rot	-5721
▁Amsterdam	-5722
rid	-5723
▁beteil	-5724
rig	-5725
▁terra	-5726
▁coming	-5727
▁prob	-5728
▁Debian	-5729
▁Agr	-5730
▁erfolgreich	-5731
▁submitted	-5732
rec	-5733
ibilities	-5734
▁actions	-5735
Ex	-5736
▁Wahr	-5737
▁Ke	-5738
ounts	-5739
ierter	-5740
▁Höhe	-5741
estens	-5742
▁Transport	-5743
▁video	-5744
stellt	-5745
▁style	-5746
▁Article	-5747
▁wirtschaftliche	-5748
▁gives	-5749
▁Mich	-5750
▁Develop	-5751
▁Pers	-5752
Unsere	-5753
▁Madam	-5754
▁Dieses	-5755
▁Aud	-5756
▁anderer	-5757
▁places	-5758
▁Mai	-5759
▁concept	-5760
▁details	-5761
▁neigh	-5762
▁Aktion	-5763
▁ten	-5764
▁Vereinbar	-5765
▁Com	-5766
▁Familie	-5767
25	-5768
▁Italy	-5769
▁regular	-5770
itzen	-5771
▁remains	-5772
creen	-5773
▁sites	-5774
volle	-5775
▁vern	-5776
▁Col	-5777
▁gross	-5778
▁Sprache	-5779
▁property	-5780
▁Kommissarin	-5781
ulgar	-5782
▁Informations	-5783
▁dep	-5784
iately	-5785
▁Hinter	-5786
▁Standpunkt	-5787
ungss	-5788
▁employe	-5789
▁enlargement	-5790
▁suffer	-5791
▁bestimmte	-5792
kommens	-5793
maßnahmen	-5794
▁cause	-5795
▁closed	-5796
▁Kommunik	-5797
tent	-5798
industrie	-5799
▁priority	-5800
▁Erachten	-5801
▁Komprom	-5802
rehens	-5803
▁Sicht	-5804
▁registr	-5805
▁une	-5806
emin	-5807
▁erschein	-5808
▁Erachtens	-5809
▁meines	-5810
roat	-5811
▁zweite	-5812
▁Bekämpfung	-5813
▁ausgestattet	-5814
Daher	-5815
▁Wettbewerb	-5816
resp	-5817
iture	-5818
▁display	-5819
▁70	-5820
▁balance	-5821
▁300	-5822
▁leave	-5823
lav	-5824
▁Kontakt	-5825
▁Rev	-5826
▁Dinge	-5827
zeuge	-5828
▁Was	-5829
▁announ	-5830
▁fal	-5831
▁Install	-5832
▁train	-5833
▁island	-5834
▁Vertrags	-5835
rief	-5836
▁bestimmten	-5837
iente	-5838
▁IN	-5839
sy	-5840
▁Micro	-5841
▁Party	-5842
ala	-5843
einer	-5844
PL	-5845
▁York	-5846
▁zahlreiche	-5847
▁amer	-5848
Vor	-5849
adem	-5850
▁Kosovo	-5851
eting	-5852
▁funding	-5853
▁register	-5854
▁partner	-5855
▁describ	-5856
▁architect	-5857
▁obwohl	-5858
▁26	-5859
▁Aspe	-5860
mented	-5861
▁consumer	-5862
▁vorgesehen	-5863
▁Sil	-5864
▁2001	-5865
▁limited	-5866
ündet	-5867
▁WTO	-5868
▁Africa	-5869
▁Freiheit	-5870
▁assistance	-5871
▁''	-5872
▁movement	-5873
▁British	-5874
▁decl	-5875
son	-5876
setzungen	-5877
▁Stad	-5878
▁forms	-5879
▁www	-5880
▁Eing	-5881
▁dring	-5882
▁neuer	-5883
▁discover	-5884
atastrop	-5885
ugs	-5886
▁Oct	-5887
▁erhält	-5888
sprün	-5889
legenheiten	-5890
▁"-	-5891
▁Museum	-5892
▁highl	-5893
▁tragen	-5894
iterranean	-5895
terne	-5896
Fraktion	-5897
▁Fehler	-5898
▁scheint	-5899
▁else	-5900
selves	-5901
▁woll	-5902
▁transparen	-5903
ieg	-5904
▁prot	-5905
16	-5906
▁Ged	-5907
▁sport	-5908
▁Ukraine	-5909
▁Fortschritte	-5910
▁supported	-5911
schnitt	-5912
▁Aktivitäten	-5913
▁Überein	-5914
▁ähn	-5915
uert	-5916
Dieser	-5917
▁ground	-5918
ategories	-5919
AUT	-5920
bus	-5921
▁sagte	-5922
▁brought	-5923
ghan	-5924
▁entde	-5925
mäßig	-5926
itzer	-5927
inal	-5928
▁Adr	-5929
▁green	-5930
mission	-5931
stein	-5932
▁Instrument	-5933
24	-5934
wertung	-5935
▁December	-5936
▁vorlie	-5937
altungs	-5938
▁regulations	-5939
▁rule	-5940
▁Mad	-5941
▁außerdem	-5942
▁independent	-5943
▁allein	-5944
▁north	-5945
▁erweit	-5946
▁Don	-5947
▁gewor	-5948
iciency	-5949
▁versuchen	-5950
▁Öffent	-5951
rang	-5952
▁Spa	-5953
▁x	-5954
▁Fed	-5955
▁Folgen	-5956
▁virt	-5957
stitute	-5958
ournal	-5959
hindern	-5960
▁Italien	-5961
cle	-5962
bert	-5963
▁hor	-5964
1)	-5965
▁effe	-5966
▁ko	-5967
▁limit	-5968
▁solchen	-5969
▁bestät	-5970
▁creating	-5971
gesellschaft	-5972
etimes	-5973
▁quiet	-5974
reibung	-5975
▁foot	-5976
▁Bestimmungen	-5977
geber	-5978
ato	-5979
▁unterst	-5980
▁dadurch	-5981
▁effiz	-5982
▁pleased	-5983
▁Wohl	-5984
▁erster	-5985
▁construction	-5986
▁fig	-5987
▁ord	-5988
▁Gefahr	-5989
▁purpose	-5990
▁March	-5991
NG	-5992
HOR	-5993
▁Western	-5994
▁restaurants	-5995
▁gemäß	-5996
oder	-5997
▁variety	-5998
▁Stelle	-5999
▁regel	-6000
uis	-6001
▁zweiten	-6002
ehen	-6003
▁Medien	-6004
ader	-6005
▁repe	-6006
▁Up	-6007
ena	-6008
▁3.	-6009
From	-6010
▁Get	-6011
ützt	-6012
▁apartment	-6013
▁discussion	-6014
▁französ	-6015
▁einzige	-6016
▁friends	-6017
▁mobile	-6018
anischen	-6019
▁lic	-6020
▁hohe	-6021
page	-6022
▁insgesamt	-6023
▁expla	-6024
▁Italian	-6025
merksamkeit	-6026
▁fix	-6027
▁Okt	-6028
▁message	-6029
▁deep	-6030
▁contr	-6031
▁became	-6032
▁Stunden	-6033
▁erheb	-6034
▁aufgenommen	-6035
▁hy	-6036
▁produced	-6037
▁instead	-6038
dra	-6039
ilos	-6040
▁Verkehrs	-6041
▁largest	-6042
ategorien	-6043
▁exec	-6044
▁billion	-6045
▁Preise	-6046
▁wid	-6047
möglichkeiten	-6048
▁gee	-6049
▁Dan	-6050
▁sus	-6051
unternehmen	-6052
endes	-6053
isters	-6054
▁renov	-6055
besch	-6056
▁airport	-6057
▁Gruppen	-6058
▁vergangenen	-6059
▁Aufmerksamkeit	-6060
▁Af	-6061
▁thous	-6062
▁Punkte	-6063
▁relationship	-6064
▁Jahrhundert	-6065
stag	-6066
igungen	-6067
ero	-6068
▁Erklärung	-6069
▁schließlich	-6070
▁study	-6071
▁stability	-6072
▁conference	-6073
▁chem	-6074
▁ways	-6075
▁1998	-6076
▁alten	-6077
▁obvious	-6078
▁Opt	-6079
arenz	-6080
▁Unterk	-6081
▁Dezember	-6082
▁accord	-6083
▁host	-6084
▁regards	-6085
▁interesting	-6086
isp	-6087
AUTHOR	-6088
ürf	-6089
▁Benutzer	-6090
▁effort	-6091
▁Privat	-6092
▁Staat	-6093
bewertungen	-6094
Sp	-6095
FR	-6096
ritts	-6097
cement	-6098
lare	-6099
▁Entscheidungen	-6100
aft	-6101
▁Enter	-6102
▁board	-6103
▁Bildung	-6104
▁measure	-6105
legung	-6106
yond	-6107
▁steps	-6108
▁safe	-6109
wa	-6110
▁Dom	-6111
▁Di	-6112
kont	-6113
▁allowed	-6114
▁einschließlich	-6115
coming	-6116
Con	-6117
▁started	-6118
porate	-6119
▁ändern	-6120
▁determin	-6121
▁procedures	-6122
▁fishing	-6123
▁activity	-6124
▁rich	-6125
conomic	-6126
▁Gemeins	-6127
▁genießen	-6128
By	-6129
cker	-6130
ugg	-6131
▁Zw	-6132
falt	-6133
▁King	-6134
▁29	-6135
▁task	-6136
▁jün	-6137
▁produce	-6138
ägt	-6139
▁vertreten	-6140
▁medium	-6141
▁Oper	-6142
▁hous	-6143
▁fisher	-6144
▁instrument	-6145
etary	-6146
Booking	-6147
▁status	-6148
ronic	-6149
▁Basis	-6150
angt	-6151
ford	-6152
▁konzentr	-6153
räfte	-6154
ades	-6155
▁keiner	-6156
▁Rights	-6157
▁Alt	-6158
anlage	-6159
▁div	-6160
▁Anforderungen	-6161
▁Berichts	-6162
▁hervorra	-6163
▁operation	-6164
▁Ents	-6165
prises	-6166
23	-6167
▁accep	-6168
altet	-6169
▁purs	-6170
▁Film	-6171
EP	-6172
▁legislative	-6173
▁compromise	-6174
▁source	-6175
zone	-6176
▁liberal	-6177
▁fall	-6178
▁Küche	-6179
▁morgen	-6180
▁contribution	-6181
bor	-6182
▁Schweiz	-6183
▁provisions	-6184
▁October	-6185
▁dut	-6186
▁Har	-6187
overty	-6188
▁Öffentlichkeit	-6189
▁Server	-6190
▁relation	-6191
▁tä	-6192
▁betroffen	-6193
▁Abend	-6194
▁Zur	-6195
see	-6196
Unter	-6197
▁damage	-6198
▁exact	-6199
▁Diskussion	-6200
▁beschäft	-6201
“,	-6202
▁disp	-6203
utter	-6204
▁Vorschriften	-6205
länd	-6206
▁mor	-6207
itude	-6208
soft	-6209
ibil	-6210
▁san	-6211
▁Zeich	-6212
▁Dieser	-6213
▁Pap	-6214
▁Sl	-6215
polit	-6216
▁Ter	-6217
▁instruments	-6218
▁written	-6219
ivity	-6220
▁Städ	-6221
ST	-6222
wendungen	-6223
▁January	-6224
▁Unternehmens	-6225
▁word	-6226
annen	-6227
▁labour	-6228
▁Grenzen	-6229
▁Organ	-6230
▁Gip	-6231
▁forder	-6232
▁dise	-6233
lines	-6234
▁leisten	-6235
▁Camp	-6236
▁Bereiche	-6237
▁Erzeug	-6238
▁Flughafen	-6239
▁appe	-6240
enntnis	-6241
▁compon	-6242
▁Prü	-6243
▁fehl	-6244
kosten	-6245
▁erwarten	-6246
itial	-6247
▁konnten	-6248
ienten	-6249
▁Landwirtschaft	-6250
▁giving	-6251
▁eingesetzt	-6252
▁überw	-6253
▁häufig	-6254
▁leider	-6255
ühungen	-6256
▁distance	-6257
dienst	-6258
▁village	-6259
▁Tagesordnung	-6260
▁Jo	-6261
▁ourselves	-6262
oker	-6263
▁kit	-6264
▁eigentlich	-6265
▁Stär	-6266
▁Bundes	-6267
▁Den	-6268
▁Star	-6269
ira	-6270
▁gain	-6271
▁Arbeitnehmer	-6272
▁Kan	-6273
▁criteria	-6274
idge	-6275
Zu	-6276
▁historical	-6277
.)	-6278
▁Site	-6279
▁loss	-6280
▁Spanish	-6281
▁Ansatz	-6282
▁Wider	-6283
▁conven	-6284
rats	-6285
▁got	-6286
▁Gesundheits	-6287
▁statement	-6288
▁minor	-6289
elten	-6290
▁Transparenz	-6291
ifik	-6292
▁März	-6293
▁schrif	-6294
Since	-6295
▁documents	-6296
▁wenige	-6297
▁Det	-6298
▁Präsidenten	-6299
▁geworden	-6300
▁genommen	-6301
▁klein	-6302
▁prefer	-6303
▁Sim	-6304
ateral	-6305
▁Nationen	-6306
works	-6307
▁Oktober	-6308
▁violence	-6309
▁dat	-6310
▁evalu	-6311
▁pen	-6312
▁Anfrage	-6313
▁verm	-6314
freund	-6315
▁eleg	-6316
▁comprehens	-6317
▁won	-6318
▁durchgeführt	-6319
▁launch	-6320
lekt	-6321
▁Mart	-6322
iete	-6323
▁Prinzip	-6324
▁finally	-6325
▁firm	-6326
▁structure	-6327
cret	-6328
▁mountain	-6329
▁Open	-6330
Gen	-6331
wesen	-6332
letzt	-6333
5,	-6334
▁benefits	-6335
▁interpre	-6336
▁zentr	-6337
▁base	-6338
ground	-6339
...""	-6340
▁gran	-6341
▁Ere	-6342
▁Bilder	-6343
forderung	-6344
▁Democ	-6345
▁types	-6346
orgt	-6347
▁fell	-6348
▁unmittel	-6349
gy	-6350
EM	-6351
lichkeiten	-6352
▁Tex	-6353
▁mem	-6354
▁Inn	-6355
▁depart	-6356
▁Systems	-6357
▁Development	-6358
▁Belg	-6359
orgung	-6360
Office	-6361
▁Industr	-6362
▁Ed	-6363
▁berühm	-6364
▁benötigen	-6365
▁Empfehl	-6366
ierende	-6367
▁nied	-6368
ograf	-6369
▁brit	-6370
▁Sinne	-6371
▁Services	-6372
fun	-6373
ought	-6374
▁film	-6375
uls	-6376
here	-6377
▁gele	-6378
▁path	-6379
UR	-6380
ocated	-6381
▁suchen	-6382
▁immediately	-6383
head	-6384
De	-6385
▁Hung	-6386
▁constant	-6387
▁Em	-6388
▁aktuellen	-6389
▁Gründen	-6390
▁worth	-6391
OT	-6392
▁Investitionen	-6393
▁Sommer	-6394
▁elements	-6395
▁bra	-6396
▁edit	-6397
▁west	-6398
▁höher	-6399
▁wine	-6400
▁highest	-6401
▁Auftrag	-6402
2)	-6403
▁ihres	-6404
▁europäischer	-6405
80	-6406
▁distribution	-6407
▁Unsere	-6408
▁angesichts	-6409
▁Juli	-6410
▁Sum	-6411
▁observ	-6412
drücklich	-6413
zwe	-6414
▁threat	-6415
▁transparency	-6416
▁Portugal	-6417
▁Schwier	-6418
teuer	-6419
▁freund	-6420
frastruct	-6421
▁Down	-6422
wind	-6423
enew	-6424
▁wichtiger	-6425
▁gas	-6426
fordern	-6427
▁section	-6428
▁grat	-6429
leitet	-6430
▁kannst	-6431
anted	-6432
▁Cap	-6433
▁perfe	-6434
▁lower	-6435
▁kennen	-6436
▁Kur	-6437
urance	-6438
no	-6439
▁employees	-6440
▁Veränder	-6441
▁gefunden	-6442
zeichnung	-6443
▁Metho	-6444
▁integrated	-6445
▁Vorsitz	-6446
▁weder	-6447
house	-6448
ieht	-6449
▁Linux	-6450
▁bezüglich	-6451
▁useful	-6452
▁ult	-6453
▁equal	-6454
yer	-6455
More	-6456
▁Computer	-6457
▁Firma	-6458
zusch	-6459
▁Rede	-6460
▁stock	-6461
▁agenda	-6462
▁geschaffen	-6463
▁numerous	-6464
▁Auffassung	-6465
▁Iraq	-6466
▁alternative	-6467
▁Afghan	-6468
▁gre	-6469
▁vorge	-6470
▁reading	-6471
orning	-6472
▁ursprün	-6473
▁Untersuch	-6474
▁affect	-6475
eks	-6476
▁late	-6477
▁zeit	-6478
▁applied	-6479
▁parking	-6480
cription	-6481
▁cy	-6482
aign	-6483
ammlung	-6484
▁challenges	-6485
▁elections	-6486
▁Aufenthalt	-6487
▁drive	-6488
▁halte	-6489
--	-6490
▁Sache	-6491
▁July	-6492
leb	-6493
ängen	-6494
▁Projekte	-6495
mosphäre	-6496
▁helpful	-6497
▁reality	-6498
▁University	-6499
▁emb	-6500
▁mis	-6501
urthermore	-6502
▁Nr	-6503
▁Cost	-6504
▁sonst	-6505
ral	-6506
bezogen	-6507
▁consist	-6508
iker	-6509
▁Bulgar	-6510
▁coast	-6511
▁Weiter	-6512
▁Centre	-6513
ücken	-6514
▁apartments	-6515
▁poverty	-6516
▁processes	-6517
▁Lebensmittel	-6518
▁Auto	-6519
▁Innen	-6520
▁payment	-6521
wortern	-6522
äte	-6523
▁Gal	-6524
▁tools	-6525
zehn	-6526
▁round	-6527
▁consequences	-6528
▁eher	-6529
▁Präsidentschaft	-6530
front	-6531
▁daily	-6532
▁emiss	-6533
ye	-6534
▁übrigen	-6535
legation	-6536
ünde	-6537
▁ski	-6538
▁teach	-6539
achtung	-6540
▁unemp	-6541
▁erneut	-6542
199	-6543
▁saying	-6544
ls	-6545
▁sieht	-6546
▁CO	-6547
▁begrüße	-6548
▁offering	-6549
▁diejenigen	-6550
mö	-6551
▁occas	-6552
▁crucial	-6553
phone	-6554
▁Java	-6555
▁Sign	-6556
glied	-6557
▁solidarity	-6558
▁bem	-6559
▁mut	-6560
▁überprü	-6561
▁tim	-6562
▁treffen	-6563
▁bringt	-6564
▁1997	-6565
engen	-6566
▁Regeln	-6567
▁analysis	-6568
zuführen	-6569
▁Solidar	-6570
▁beyond	-6571
sprozess	-6572
▁bad	-6573
▁drink	-6574
▁schl	-6575
▁hom	-6576
▁entsprechenden	-6577
▁Koh	-6578
richten	-6579
▁Mobil	-6580
▁DVD	-6581
▁legit	-6582
ünstler	-6583
▁perman	-6584
▁Ereign	-6585
aktion	-6586
▁ign	-6587
▁Flor	-6588
izin	-6589
▁Gott	-6590
park	-6591
▁Ta	-6592
ogle	-6593
ione	-6594
sprü	-6595
▁phot	-6596
ören	-6597
▁undert	-6598
▁ziehen	-6599
back	-6600
▁persons	-6601
▁Beteil	-6602
▁distr	-6603
▁paid	-6604
Pres	-6605
Ber	-6606
▁Exper	-6607
folge	-6608
▁Änderung	-6609
▁beitragen	-6610
II	-6611
▁wissenschaft	-6612
▁Straßen	-6613
▁öffentliche	-6614
▁erfahren	-6615
▁Mann	-6616
▁Neu	-6617
afe	-6618
▁humanit	-6619
▁offered	-6620
▁Bahn	-6621
▁colleagues	-6622
hesion	-6623
ym	-6624
iegel	-6625
▁conflict	-6626
ded	-6627
ares	-6628
▁spirit	-6629
▁thought	-6630
PS	-6631
▁goes	-6632
▁plant	-6633
▁Januar	-6634
▁Mult	-6635
spricht	-6636
▁Aufgaben	-6637
scheinlich	-6638
hilfe	-6639
▁Term	-6640
▁Armut	-6641
▁hinzu	-6642
▁illegal	-6643
▁practical	-6644
▁Gast	-6645
view	-6646
▁pal	-6647
rü	-6648
▁van	-6649
▁entsprechend	-6650
▁Bemühungen	-6651
▁Fällen	-6652
▁happy	-6653
spiel	-6654
▁langfrist	-6655
One	-6656
ufe	-6657
ienz	-6658
Second	-6659
ya	-6660
▁Linie	-6661
3,	-6662
▁vergessen	-6663
wser	-6664
▁las	-6665
vors	-6666
ola	-6667
losen	-6668
Therefore	-6669
▁sufficient	-6670
▁Folge	-6671
▁ideas	-6672
anging	-6673
▁zehn	-6674
▁kur	-6675
▁Agrar	-6676
▁Bedürf	-6677
▁Monaten	-6678
ula	-6679
▁Mediterranean	-6680
▁früher	-6681
leistung	-6682
schließen	-6683
▁requires	-6684
▁verhindern	-6685
▁Villa	-6686
▁hil	-6687
fühl	-6688
othe	-6689
wart	-6690
iability	-6691
▁ban	-6692
IA	-6693
▁forces	-6694
obby	-6695
iveau	-6696
fo	-6697
▁exception	-6698
▁Nachbar	-6699
▁kil	-6700
▁har	-6701
angeb	-6702
▁Vertreter	-6703
▁infrastruct	-6704
▁Mos	-6705
lim	-6706
▁Bürgern	-6707
▁ausgezeich	-6708
▁getan	-6709
▁genannten	-6710
vere	-6711
ücht	-6712
▁krit	-6713
▁unbe	-6714
▁weak	-6715
based	-6716
▁Beginn	-6717
atürlich	-6718
strumente	-6719
▁Von	-6720
sych	-6721
▁organisations	-6722
ocol	-6723
▁Sitzung	-6724
▁Republik	-6725
heben	-6726
▁Kredit	-6727
▁behandelt	-6728
▁Wunsch	-6729
estic	-6730
▁spee	-6731
ürger	-6732
▁minimum	-6733
▁hätten	-6734
▁Dritt	-6735
cia	-6736
▁doubt	-6737
▁weeks	-6738
▁advantage	-6739
▁Ost	-6740
▁Ressourcen	-6741
▁pie	-6742
▁tomor	-6743
craft	-6744
▁Spezial	-6745
▁frequ	-6746
tellten	-6747
▁erfolgt	-6748
▁congratulate	-6749
cape	-6750
DF	-6751
!!	-6752
▁Völk	-6753
▁tomorrow	-6754
▁Hel	-6755
ifel	-6756
▁vorher	-6757
hold	-6758
▁präsent	-6759
SS	-6760
▁jüng	-6761
▁modified	-6762
▁Directive	-6763
▁anderem	-6764
▁Gas	-6765
▁historic	-6766
Von	-6767
▁Tagen	-6768
▁waste	-6769
öße	-6770
▁implemented	-6771
▁hear	-6772
Durch	-6773
▁Winter	-6774
lose	-6775
▁partnership	-6776
▁Weit	-6777
urb	-6778
▁secure	-6779
programm	-6780
▁Sm	-6781
▁nimmt	-6782
ordination	-6783
▁Behandlung	-6784
▁sales	-6785
▁relating	-6786
▁Ven	-6787
▁shopping	-6788
▁clients	-6789
▁renew	-6790
Unser	-6791
ischem	-6792
▁Restaurants	-6793
▁Kor	-6794
▁Verl	-6795
gewiesen	-6796
üge	-6797
▁reference	-6798
▁Palest	-6799
Bes	-6800
ibe	-6801
▁starting	-6802
President	-6803
esellschaften	-6804
zt	-6805
ilosoph	-6806
▁published	-6807
▁monitoring	-6808
▁versucht	-6809
▁reich	-6810
vis	-6811
▁bedroom	-6812
▁lines	-6813
▁restr	-6814
bin	-6815
▁Tradition	-6816
▁Ba	-6817
▁paar	-6818
▁morning	-6819
▁Well	-6820
▁besondere	-6821
Ro	-6822
änge	-6823
wün	-6824
▁Zentral	-6825
▁growing	-6826
▁lives	-6827
▁Real	-6828
▁caused	-6829
▁comprehensive	-6830
▁ol	-6831
▁uner	-6832
▁syn	-6833
▁reduction	-6834
▁efficiency	-6835
frastruktur	-6836
▁operating	-6837
▁2,	-6838
▁circum	-6839
pective	-6840
oon	-6841
icken	-6842
▁Gerichts	-6843
▁ausreich	-6844
▁Bürgerinnen	-6845
▁jen	-6846
▁anti	-6847
▁fordern	-6848
schreit	-6849
▁wr	-6850
▁usw	-6851
ret	-6852
theless	-6853
▁maximum	-6854
▁server	-6855
▁Atmosphäre	-6856
▁accordance	-6857
▁ready	-6858
▁machine	-6859
▁Let	-6860
zielle	-6861
▁select	-6862
▁Technologie	-6863
▁Anstr	-6864
▁meaning	-6865
▁ful	-6866
hafte	-6867
▁sechs	-6868
ategie	-6869
▁mü	-6870
nungen	-6871
▁Security	-6872
▁Gebäude	-6873
schö	-6874
▁campaign	-6875
▁Betrieb	-6876
▁recon	-6877
ungsver	-6878
▁Test	-6879
▁gewesen	-6880
▁mitt	-6881
▁Free	-6882
▁überhaupt	-6883
gruppe	-6884
▁unbed	-6885
▁Finanzierung	-6886
▁Erfahrungen	-6887
▁options	-6888
▁Vergangen	-6889
▁sports	-6890
stitutional	-6891
▁Bot	-6892
▁initial	-6893
ulated	-6894
▁35	-6895
▁Mer	-6896
▁anything	-6897
▁street	-6898
▁erfüllen	-6899
▁pain	-6900
altungen	-6901
6,	-6902
▁Austria	-6903
erner	-6904
ichert	-6905
▁Nacht	-6906
▁Minder	-6907
▁beant	-6908
standing	-6909
pool	-6910
▁ded	-6911
▁warum	-6912
▁folgen	-6913
▁erklärt	-6914
▁urg	-6915
ado	-6916
▁sometimes	-6917
▁zahlreichen	-6918
▁berücksichtigt	-6919
▁begin	-6920
atterin	-6921
▁Video	-6922
pack	-6923
itation	-6924
▁Ol	-6925
▁rapid	-6926
▁Inhalt	-6927
▁TH	-6928
▁technologies	-6929
▁günst	-6930
▁Protokoll	-6931
▁border	-6932
▁größer	-6933
itch	-6934
▁critic	-6935
▁mensch	-6936
▁players	-6937
CO	-6938
▁Forschungs	-6939
▁Werte	-6940
atform	-6941
▁offiz	-6942
▁säm	-6943
▁pictures	-6944
▁betreff	-6945
▁gerecht	-6946
▁advert	-6947
▁extent	-6948
▁charm	-6949
▁probably	-6950
▁chance	-6951
▁terrorism	-6952
asten	-6953
▁began	-6954
▁ones	-6955
bas	-6956
▁languages	-6957
LA	-6958
▁Verteid	-6959
▁stimmen	-6960
alyse	-6961
▁Cal	-6962
▁Praxis	-6963
▁remov	-6964
▁swimming	-6965
▁farmers	-6966
▁Vergangenheit	-6967
ius	-6968
▁export	-6969
fläche	-6970
▁Stock	-6971
▁worldwide	-6972
▁Initi	-6973
▁richtige	-6974
▁Aspekte	-6975
trägen	-6976
▁staat	-6977
zy	-6978
mus	-6979
▁eingeb	-6980
▁sav	-6981
board	-6982
utive	-6983
▁Center	-6984
ichern	-6985
▁welches	-6986
▁Je	-6987
▁methods	-6988
▁counter	-6989
iell	-6990
ais	-6991
▁Mc	-6992
achs	-6993
▁Erd	-6994
▁Green	-6995
▁Ak	-6996
▁jeweiligen	-6997
▁bur	-6998
▁voting	-6999
▁interested	-7000
legten	-7001
▁größte	-7002
ällt	-7003
▁challenge	-7004
weitens	-7005
▁Conference	-7006
ifically	-7007
ffizienz	-7008
rem	-7009
▁Terrorismus	-7010
▁Fäh	-7011
▁verpflichtet	-7012
oke	-7013
▁transparent	-7014
▁email	-7015
grenz	-7016
▁lands	-7017
▁decor	-7018
▁sectors	-7019
▁respond	-7020
▁Menschenrechts	-7021
▁Gef	-7022
itten	-7023
▁Grand	-7024
IV	-7025
▁einheit	-7026
hotel	-7027
Außerdem	-7028
iding	-7029
▁194	-7030
▁stets	-7031
▁adopt	-7032
▁Mass	-7033
izes	-7034
▁tourist	-7035
▁sal	-7036
izing	-7037
▁concentr	-7038
▁seines	-7039
▁scientific	-7040
▁Pet	-7041
▁Rats	-7042
▁cast	-7043
▁Beruf	-7044
▁historischen	-7045
▁wanted	-7046
▁symbol	-7047
▁arrange	-7048
▁Agent	-7049
SP	-7050
▁bill	-7051
ächen	-7052
▁Human	-7053
▁ehem	-7054
4,	-7055
ktive	-7056
▁bald	-7057
▁wählen	-7058
▁Tier	-7059
vollen	-7060
▁candid	-7061
▁Public	-7062
▁Airport	-7063
igation	-7064
▁bein	-7065
zeiten	-7066
▁valid	-7067
▁les	-7068
▁Dat	-7069
▁außerhalb	-7070
▁cert	-7071
wel	-7072
▁Kn	-7073
▁motor	-7074
▁games	-7075
▁4.	-7076
▁accepted	-7077
enze	-7078
▁Hal	-7079
▁zuständ	-7080
reland	-7081
▁Schritte	-7082
▁release	-7083
▁selection	-7084
▁businesses	-7085
ränkt	-7086
▁beträ	-7087
ichtlich	-7088
karte	-7089
▁rele	-7090
▁exerc	-7091
▁befür	-7092
▁Opfer	-7093
▁apprec	-7094
abkommen	-7095
▁Spanien	-7096
▁modernen	-7097
▁ine	-7098
▁Gel	-7099
▁zumindest	-7100
fence	-7101
▁verantwortlich	-7102
▁Eigent	-7103
figur	-7104
meer	-7105
losigkeit	-7106
poses	-7107
hers	-7108
▁powers	-7109
▁despite	-7110
▁Mand	-7111
pen	-7112
▁Microsoft	-7113
tempt	-7114
▁Zivil	-7115
▁blo	-7116
▁upd	-7117
▁Amendment	-7118
▁folgt	-7119
▁Id	-7120
▁kam	-7121
anks	-7122
▁gemein	-7123
▁Waren	-7124
▁tät	-7125
▁Gene	-7126
▁lay	-7127
sc	-7128
▁fine	-7129
',	-7130
verage	-7131
▁Acc	-7132
kom	-7133
▁Angelegenheit	-7134
iant	-7135
▁walking	-7136
▁visitors	-7137
▁verab	-7138
▁heutigen	-7139
▁vollständig	-7140
▁genu	-7141
▁Doppel	-7142
▁lies	-7143
zul	-7144
▁genug	-7145
▁expert	-7146
▁influence	-7147
▁Berat	-7148
hilfen	-7149
▁schützen	-7150
▁End	-7151
▁images	-7152
Denn	-7153
▁enorm	-7154
▁verkauf	-7155
▁raised	-7156
▁remember	-7157
furt	-7158
▁trying	-7159
ämpfen	-7160
ATO	-7161
▁glo	-7162
atalog	-7163
/0	-7164
▁Cop	-7165
▁Ess	-7166
▁persönlichen	-7167
▁competit	-7168
▁Vergleich	-7169
▁lost	-7170
▁separate	-7171
▁Val	-7172
raten	-7173
▁coup	-7174
▁Such	-7175
▁Firmen	-7176
▁absolutely	-7177
▁Angelegenheiten	-7178
barer	-7179
▁stärker	-7180
▁ris	-7181
▁Schwierigkeiten	-7182
▁Chinese	-7183
▁Chance	-7184
akte	-7185
▁reflect	-7186
▁elegant	-7187
affe	-7188
ids	-7189
▁fant	-7190
▁Garten	-7191
▁Parteien	-7192
▁Vertrauen	-7193
▁Hy	-7194
tritt	-7195
▁komp	-7196
▁substant	-7197
▁Tor	-7198
▁Del	-7199
▁technischen	-7200
konom	-7201
nungs	-7202
▁Gran	-7203
erkennung	-7204
sicherheit	-7205
▁folgenden	-7206
▁prü	-7207
▁Regierungs	-7208
▁anders	-7209
anda	-7210
imed	-7211
▁erinnern	-7212
▁heav	-7213
▁ausschließlich	-7214
▁crimin	-7215
9,	-7216
▁bessere	-7217
werte	-7218
▁demands	-7219
mel	-7220
künft	-7221
▁Entschließungs	-7222
▁Einwander	-7223
quem	-7224
▁Annahme	-7225
▁deutschen	-7226
3.	-7227
▁SM	-7228
ga	-7229
handel	-7230
anc	-7231
gesetz	-7232
▁erlaubt	-7233
▁PH	-7234
wenden	-7235
zusetzen	-7236
hältnis	-7237
▁Hinsicht	-7238
▁borders	-7239
icket	-7240
▁spezif	-7241
ML	-7242
▁Hil	-7243
ologie	-7244
▁affe	-7245
▁Ireland	-7246
▁insp	-7247
Ad	-7248
▁unten	-7249
▁angemessen	-7250
▁honour	-7251
tere	-7252
▁club	-7253
▁John	-7254
▁namely	-7255
chtet	-7256
▁erwartet	-7257
enh	-7258
▁fields	-7259
▁manufactur	-7260
▁slow	-7261
▁listen	-7262
▁Tem	-7263
▁anerk	-7264
ION	-7265
5-0	-7266
▁UK	-7267
gehend	-7268
star	-7269
▁vital	-7270
▁changed	-7271
▁Landwir	-7272
▁gek	-7273
▁strategic	-7274
abr	-7275
gült	-7276
▁verurs	-7277
▁getroffen	-7278
Or	-7279
zulegen	-7280
attle	-7281
lemente	-7282
▁Bal	-7283
▁Ihres	-7284
▁jähr	-7285
▁overall	-7286
ruption	-7287
▁innovation	-7288
bit	-7289
ört	-7290
krise	-7291
last	-7292
sätze	-7293
▁allgemeinen	-7294
Wer	-7295
Furthermore	-7296
▁menu	-7297
▁Ord	-7298
▁Gespr	-7299
▁annual	-7300
▁übernehmen	-7301
▁Einrichtung	-7302
Reg	-7303
für	-7304
▁kitchen	-7305
▁calls	-7306
▁zukünft	-7307
▁representatives	-7308
▁Mess	-7309
▁italien	-7310
▁fire	-7311
▁sil	-7312
▁Spieler	-7313
▁Prozent	-7314
indungen	-7315
iarden	-7316
▁Swiss	-7317
ätzlich	-7318
▁proceed	-7319
bezieh	-7320
ighted	-7321
▁Modell	-7322
engungen	-7323
IF	-7324
▁season	-7325
▁gesetz	-7326
▁jun	-7327
▁worked	-7328
▁trip	-7329
▁Liberal	-7330
amin	-7331
angs	-7332
▁Kapital	-7333
▁gesehen	-7334
▁initiatives	-7335
My	-7336
iertel	-7337
▁Are	-7338
aters	-7339
//	-7340
bringen	-7341
ollar	-7342
itts	-7343
▁yourself	-7344
ziert	-7345
▁Islam	-7346
▁privaten	-7347
EG	-7348
▁wiederhol	-7349
▁Generation	-7350
▁simpl	-7351
▁Produktions	-7352
used	-7353
rogen	-7354
▁Sen	-7355
▁Prem	-7356
sprechen	-7357
vorsitz	-7358
2-	-7359
▁wrong	-7360
▁processing	-7361
gruppen	-7362
aries	-7363
▁player	-7364
▁intended	-7365
▁Russian	-7366
uly	-7367
▁negative	-7368
▁bitten	-7369
▁begrüßen	-7370
▁heard	-7371
▁expressed	-7372
▁Ac	-7373
uses	-7374
wan	-7375
bum	-7376
ulations	-7377
mand	-7378
▁offens	-7379
immern	-7380
▁evening	-7381
isely	-7382
▁Sonder	-7383
▁darstellt	-7384
▁beginnen	-7385
▁ehemal	-7386
▁Arbeitsplätze	-7387
▁track	-7388
▁vertra	-7389
ita	-7390
▁zudem	-7391
pport	-7392
inens	-7393
▁accession	-7394
wes	-7395
▁angeboten	-7396
▁plans	-7397
▁AC	-7398
▁setzt	-7399
▁Verfassung	-7400
ördert	-7401
eignet	-7402
▁Verwaltung	-7403
lymp	-7404
▁Prä	-7405
▁award	-7406
▁occup	-7407
reise	-7408
▁endlich	-7409
▁committed	-7410
▁banks	-7411
asc	-7412
▁Agre	-7413
▁natür	-7414
QL	-7415
hrte	-7416
▁ability	-7417
▁automatisch	-7418
book	-7419
▁bir	-7420
▁cities	-7421
▁11.	-7422
▁Solidarität	-7423
auern	-7424
▁eindeutig	-7425
gu	-7426
hood	-7427
ildet	-7428
▁bestimmt	-7429
▁flexible	-7430
▁angene	-7431
Although	-7432
▁Sü	-7433
▁cell	-7434
▁Gold	-7435
▁Afghanistan	-7436
di	-7437
nel	-7438
▁länd	-7439
▁dipl	-7440
▁Herz	-7441
▁Österreich	-7442
ystemen	-7443
▁talking	-7444
tert	-7445
▁restrict	-7446
▁falls	-7447
▁traffic	-7448
▁195	-7449
▁letzte	-7450
▁target	-7451
▁love	-7452
zeichen	-7453
▁Voll	-7454
ruit	-7455
Secondly	-7456
ifizierung	-7457
▁goal	-7458
....	-7459
▁Antrag	-7460
gere	-7461
▁Einfluss	-7462
▁fresh	-7463
▁deine	-7464
▁Hoff	-7465
▁datab	-7466
▁placed	-7467
▁5.	-7468
▁Hause	-7469
):	-7470
▁photo	-7471
▁Sam	-7472
stoffe	-7473
▁Google	-7474
▁Cy	-7475
▁sinn	-7476
▁Konzept	-7477
▁alone	-7478
cluded	-7479
ustausch	-7480
Doch	-7481
imat	-7482
▁Tal	-7483
▁dringend	-7484
▁Flex	-7485
▁running	-7486
ories	-7487
▁tal	-7488
▁entgegen	-7489
▁NATO	-7490
acc	-7491
▁bemü	-7492
▁Eind	-7493
▁mainly	-7494
70	-7495
▁Falle	-7496
▁jem	-7497
▁beide	-7498
▁spect	-7499
▁hot	-7500
▁rom	-7501
▁Krank	-7502
Zum	-7503
idelines	-7504
▁Eas	-7505
▁families	-7506
▁länger	-7507
▁Hostels	-7508
▁autom	-7509
▁element	-7510
▁cohesion	-7511
▁Altern	-7512
▁planning	-7513
▁terrace	-7514
▁fear	-7515
▁improved	-7516
agraph	-7517
▁Download	-7518
▁tit	-7519
▁Doch	-7520
▁Mitte	-7521
▁verme	-7522
grams	-7523
▁Freiz	-7524
▁bege	-7525
ples	-7526
▁150	-7527
▁remind	-7528
▁opening	-7529
itzt	-7530
gebiet	-7531
▁justice	-7532
▁approved	-7533
set	-7534
▁Zustimmung	-7535
kaufs	-7536
▁Pla	-7537
▁Verpflichtungen	-7538
▁ethn	-7539
▁Mün	-7540
ras	-7541
▁Georg	-7542
system	-7543
▁anc	-7544
▁kaum	-7545
▁Anstrengungen	-7546
ibly	-7547
gers	-7548
▁confirm	-7549
ores	-7550
▁größere	-7551
▁Leute	-7552
▁brand	-7553
▁reforms	-7554
▁Tätigkeit	-7555
▁dan	-7556
▁reag	-7557
▁Dav	-7558
▁Ausschuß	-7559
▁Kompromiss	-7560
▁increasingly	-7561
▁conclusion	-7562
▁Ausgang	-7563
▁students	-7564
▁whom	-7565
▁currency	-7566
▁attempt	-7567
▁comments	-7568
▁affected	-7569
▁feature	-7570
▁decide	-7571
▁benutzt	-7572
▁irgend	-7573
▁genannt	-7574
▁Slo	-7575
▁circumstances	-7576
▁hol	-7577
AG	-7578
▁umfang	-7579
ückt	-7580
▁Bur	-7581
▁Verhalten	-7582
itory	-7583
▁administrative	-7584
▁genutzt	-7585
▁God	-7586
bourg	-7587
TV	-7588
▁After	-7589
zeigen	-7590
quate	-7591
▁laws	-7592
▁News	-7593
8,	-7594
ael	-7595
▁4-	-7596
▁bilden	-7597
▁komfort	-7598
▁buy	-7599
▁Gesamt	-7600
pliz	-7601
Of	-7602
▁Lang	-7603
sta	-7604
etten	-7605
▁suitable	-7606
▁Play	-7607
bü	-7608
▁zusätzliche	-7609
▁Organisationen	-7610
rieb	-7611
▁regime	-7612
▁Roma	-7613
▁collection	-7614
Str	-7615
ifying	-7616
▁discrimin	-7617
▁provision	-7618
▁inn	-7619
▁bezahl	-7620
▁emissions	-7621
▁unbedingt	-7622
▁Nations	-7623
▁automatically	-7624
▁Ang	-7625
▁Anerkennung	-7626
▁eingehen	-7627
▁touch	-7628
▁reduced	-7629
▁Wissenschaft	-7630
▁Bade	-7631
aschine	-7632
▁Gest	-7633
▁belieb	-7634
▁cele	-7635
▁box	-7636
▁Amb	-7637
▁Ins	-7638
▁Idee	-7639
▁priorities	-7640
▁entspricht	-7641
▁moderne	-7642
▁phone	-7643
▁überzeugt	-7644
▁watch	-7645
▁delivery	-7646
▁Mex	-7647
▁Dub	-7648
▁Überwach	-7649
▁mill	-7650
▁oben	-7651
▁vorgelegt	-7652
endence	-7653
”,	-7654
▁feed	-7655
▁Schne	-7656
▁entstehen	-7657
▁entschieden	-7658
enty	-7659
▁Schwer	-7660
▁confidence	-7661
▁cas	-7662
▁erkennen	-7663
▁contribute	-7664
▁administration	-7665
▁unemployment	-7666
deed	-7667
ils	-7668
▁Erk	-7669
lichung	-7670
▁structural	-7671
Par	-7672
▁stabil	-7673
▁supports	-7674
▁kürz	-7675
brit	-7676
▁intell	-7677
▁gere	-7678
▁extend	-7679
alled	-7680
▁extensive	-7681
ago	-7682
▁gegr	-7683
▁Qualitäts	-7684
▁cos	-7685
igran	-7686
▁Kauf	-7687
▁gesetzt	-7688
▁says	-7689
laufen	-7690
▁Wahlen	-7691
reiber	-7692
ses	-7693
▁ersch	-7694
▁infrastructure	-7695
▁ensuring	-7696
bad	-7697
aria	-7698
▁Grie	-7699
▁unterb	-7700
▁po	-7701
Tra	-7702
struktur	-7703
▁Start	-7704
▁berücksichtigen	-7705
zech	-7706
▁zufrieden	-7707
▁militär	-7708
▁elektron	-7709
▁coordin	-7710
▁ce	-7711
▁Durchführung	-7712
verläss	-7713
▁participation	-7714
▁auszu	-7715
▁wesentlich	-7716
▁rise	-7717
endet	-7718
artigen	-7719
iano	-7720
fälle	-7721
▁scope	-7722
://	-7723
▁encourage	-7724
▁Vereinbarung	-7725
ray	-7726
my	-7727
▁powerful	-7728
äher	-7729
iat	-7730
▁victims	-7731
▁anz	-7732
▁Est	-7733
folger	-7734
▁ed	-7735
ocation	-7736
▁specifically	-7737
ING	-7738
▁Costa	-7739
▁manner	-7740
ästinens	-7741
▁Ra	-7742
izenz	-7743
▁Deshalb	-7744
▁medic	-7745
entwicklung	-7746
▁played	-7747
iums	-7748
aming	-7749
▁1990	-7750
▁Kriterien	-7751
▁herz	-7752
▁Licht	-7753
elte	-7754
▁Boden	-7755
▁angegeben	-7756
▁mid	-7757
▁crime	-7758
ongs	-7759
▁Acht	-7760
how	-7761
▁speziell	-7762
▁Osten	-7763
haften	-7764
▁Glaub	-7765
▁fellow	-7766
▁voraus	-7767
▁aktuelle	-7768
azz	-7769
▁Bon	-7770
▁gezeigt	-7771
án	-7772
PT	-7773
omet	-7774
daten	-7775
▁electronic	-7776
▁Bu	-7777
CD	-7778
▁Cr	-7779
▁bewusst	-7780
▁mindestens	-7781
ampag	-7782
▁tabled	-7783
ündung	-7784
▁mehreren	-7785
benen	-7786
▁Körper	-7787
esearch	-7788
▁purposes	-7789
uts	-7790
gewöhn	-7791
het	-7792
lying	-7793
zentrum	-7794
▁Garant	-7795
▁introduced	-7796
▁danke	-7797
äden	-7798
▁Waffen	-7799
▁Ausbildung	-7800
▁demokratischen	-7801
▁herunter	-7802
Seit	-7803
▁agriculture	-7804
▁hochwert	-7805
laus	-7806
▁Bestand	-7807
inian	-7808
▁verfügbar	-7809
ham	-7810
▁erreich	-7811
fiz	-7812
afft	-7813
▁hund	-7814
wirken	-7815
▁black	-7816
odies	-7817
▁Bran	-7818
▁quant	-7819
▁church	-7820
▁nachdem	-7821
▁Kommunikation	-7822
arus	-7823
▁entsprechende	-7824
▁plus	-7825
Während	-7826
▁hinweisen	-7827
ede	-7828
▁repla	-7829
▁Abschluss	-7830
▁!	-7831
▁Holz	-7832
▁Off	-7833
▁Mitteilung	-7834
▁effectively	-7835
orea	-7836
▁Autom	-7837
time	-7838
▁Dre	-7839
▁getting	-7840
▁Haft	-7841
▁Anspruch	-7842
▁larger	-7843
iler	-7844
aktiv	-7845
▁sources	-7846
▁vorsch	-7847
IG	-7848
▁Sea	-7849
▁detailed	-7850
räge	-7851
▁wonderful	-7852
▁nöt	-7853
▁Agenda	-7854
▁animals	-7855
▁glauben	-7856
▁Partei	-7857
▁served	-7858
▁harm	-7859
▁ship	-7860
▁platform	-7861
▁aimed	-7862
▁screen	-7863
zeichnen	-7864
▁AL	-7865
▁referred	-7866
▁competitive	-7867
mon	-7868
▁usually	-7869
▁beschlossen	-7870
▁Elekt	-7871
IR	-7872
amber	-7873
▁Archite	-7874
▁Vorteile	-7875
▁fert	-7876
▁Stabilität	-7877
anlagen	-7878
ickets	-7879
▁Agreement	-7880
▁functions	-7881
5.	-7882
▁summit	-7883
▁erwähnt	-7884
▁client	-7885
▁ec	-7886
▁Währung	-7887
▁nationale	-7888
▁gesprochen	-7889
▁Wik	-7890
schuld	-7891
öm	-7892
▁IP	-7893
▁euch	-7894
mack	-7895
▁dedic	-7896
▁globalen	-7897
▁motion	-7898
▁;	-7899
▁""...	-7900
▁wert	-7901
▁angesprochen	-7902
▁mm	-7903
▁exactly	-7904
▁white	-7905
▁Et	-7906
▁serve	-7907
esents	-7908
▁pleasant	-7909
▁rural	-7910
▁sort	-7911
idential	-7912
▁installation	-7913
ideos	-7914
Darüber	-7915
▁zentral	-7916
letter	-7917
hle	-7918
▁Sing	-7919
▁besonderen	-7920
avi	-7921
▁Sprachen	-7922
▁kontroll	-7923
▁risks	-7924
▁institutional	-7925
ingu	-7926
▁Lab	-7927
▁Schaden	-7928
▁protected	-7929
▁poll	-7930
▁occur	-7931
ault	-7932
spunkt	-7933
▁prem	-7934
▁precisely	-7935
aste	-7936
udem	-7937
oted	-7938
▁dead	-7939
zieht	-7940
called	-7941
▁akzeptieren	-7942
▁Ident	-7943
▁Hintergrund	-7944
▁sitting	-7945
▁reception	-7946
▁Your	-7947
itzerland	-7948
▁Enterprise	-7949
▁Inhalte	-7950
▁competen	-7951
▁sicherzustellen	-7952
▁Irak	-7953
atoren	-7954
▁chann	-7955
▁stated	-7956
▁becoming	-7957
▁Board	-7958
▁luxur	-7959
law	-7960
▁Einsch	-7961
▁Koordin	-7962
▁Zeichen	-7963
ounge	-7964
▁einzus	-7965
▁eingerichtet	-7966
sm	-7967
▁Ern	-7968
fahrens	-7969
▁2020	-7970
▁police	-7971
ibilität	-7972
▁vac	-7973
stieg	-7974
▁Policy	-7975
▁facilit	-7976
▁otherwise	-7977
▁Mensch	-7978
ologischen	-7979
▁represents	-7980
▁Nahr	-7981
atively	-7982
fu	-7983
▁wants	-7984
▁camera	-7985
▁Regional	-7986
▁budgetary	-7987
▁Öl	-7988
▁geeignet	-7989
▁discussed	-7990
▁Spr	-7991
▁Fischerei	-7992
▁Reformen	-7993
Acc	-7994
gree	-7995
▁mand	-7996
weder	-7997
unk	-7998
▁Tab	-7999
unkten	-8000
wegung	-8001
agegen	-8002
▁temper	-8003
▁Besucher	-8004
▁AN	-8005
▁Asia	-8006
▁bestehenden	-8007
▁wahrscheinlich	-8008
▁discussions	-8009
▁developments	-8010
ield	-8011
▁Bemerk	-8012
ida	-8013
führer	-8014
▁verz	-8015
Ph	-8016
Tod	-8017
▁Son	-8018
▁likely	-8019
▁Homepage	-8020
▁IM	-8021
▁Liber	-8022
▁erzielt	-8023
▁Ann	-8024
▁More	-8025
quality	-8026
▁Schlaf	-8027
äuser	-8028
idents	-8029
▁Arab	-8030
▁Middle	-8031
▁Stellen	-8032
▁zug	-8033
▁Sektor	-8034
▁convin	-8035
▁Assoc	-8036
▁benutzen	-8037
jected	-8038
▁Frankfurt	-8039
▁Sand	-8040
▁Czech	-8041
▁Bitte	-8042
▁mix	-8043
▁Ausgaben	-8044
enhagen	-8045
▁Kind	-8046
uber	-8047
wasser	-8048
▁conver	-8049
4.	-8050
▁spacious	-8051
▁domin	-8052
ipt	-8053
▁ehr	-8054
▁programs	-8055
▁Mio	-8056
▁thousands	-8057
▁Karte	-8058
hy	-8059
▁auth	-8060
▁forget	-8061
7,	-8062
▁Serb	-8063
▁managed	-8064
▁Bi	-8065
▁Konflikt	-8066
obilien	-8067
▁Olymp	-8068
▁Fot	-8069
▁remark	-8070
jo	-8071
▁Here	-8072
▁freuen	-8073
▁Haltung	-8074
▁sold	-8075
▁expens	-8076
uit	-8077
▁Dol	-8078
uisine	-8079
▁rechts	-8080
▁festgelegt	-8081
▁möglicherweise	-8082
▁Haushalt	-8083
amente	-8084
▁ausgew	-8085
▁Aufnahme	-8086
▁Ev	-8087
▁assessment	-8088
▁Cast	-8089
▁expand	-8090
IE	-8091
▁Roman	-8092
▁covered	-8093
▁zuletzt	-8094
▁entry	-8095
achtet	-8096
üste	-8097
schiede	-8098
▁paper	-8099
▁metres	-8100
▁critical	-8101
▁Salz	-8102
▁compl	-8103
rum	-8104
▁umgesetzt	-8105
mas	-8106
ente	-8107
▁notwendigen	-8108
ci	-8109
▁jene	-8110
▁corresp	-8111
icks	-8112
▁Kenntnis	-8113
▁expected	-8114
▁guidelines	-8115
▁prüfen	-8116
▁Milliarden	-8117
categories	-8118
▁Griechen	-8119
26	-8120
▁Zum	-8121
▁Card	-8122
▁followed	-8123
▁provider	-8124
▁spend	-8125
▁geändert	-8126
▁Beitritts	-8127
▁finanziellen	-8128
▁anderes	-8129
▁Schengen	-8130
▁inside	-8131
▁actual	-8132
▁From	-8133
▁selected	-8134
▁mil	-8135
▁hoffen	-8136
ücke	-8137
▁wood	-8138
▁She	-8139
ensions	-8140
▁Fakt	-8141
▁Some	-8142
▁By	-8143
▁earlier	-8144
▁erfüllt	-8145
werke	-8146
präsident	-8147
▁dienen	-8148
▁Motor	-8149
▁closely	-8150
▁Innovation	-8151
▁Code	-8152
▁India	-8153
▁introduction	-8154
▁radio	-8155
▁winter	-8156
5-	-8157
posed	-8158
ureau	-8159
bu	-8160
asts	-8161
▁Anpass	-8162
▁ergreifen	-8163
▁weap	-8164
▁Vorbereit	-8165
▁Unterkategorien	-8166
▁Bew	-8167
try	-8168
▁bequem	-8169
▁medical	-8170
▁debt	-8171
▁centr	-8172
▁freien	-8173
▁listed	-8174
cause	-8175
▁votes	-8176
▁unters	-8177
▁enterprises	-8178
umin	-8179
Damit	-8180
kap	-8181
ulieren	-8182
inu	-8183
▁Luxem	-8184
DP	-8185
Kon	-8186
uropa	-8187
▁Komfort	-8188
do	-8189
▁Schlüssel	-8190
▁Richtlinien	-8191
▁1996	-8192
▁Wann	-8193
▁impress	-8194
▁beziehen	-8195
▁jederzeit	-8196
▁Technologien	-8197
ailing	-8198
▁scen	-8199
▁Turk	-8200
▁Wellness	-8201
▁buildings	-8202
werten	-8203
▁spread	-8204
▁networks	-8205
ulierung	-8206
cers	-8207
▁Straße	-8208
▁lösen	-8209
▁vermeiden	-8210
denken	-8211
▁disapp	-8212
▁schwierig	-8213
▁Monate	-8214
▁wünschen	-8215
sam	-8216
▁accomp	-8217
▁Funktionen	-8218
▁trust	-8219
Me	-8220
levision	-8221
ura	-8222
▁Unser	-8223
▁Produkten	-8224
britann	-8225
▁Now	-8226
rel	-8227
90	-8228
mod	-8229
gets	-8230
▁Geh	-8231
▁electric	-8232
▁Fischere	-8233
▁improving	-8234
ads	-8235
ishing	-8236
scher	-8237
aser	-8238
chnologie	-8239
▁fahren	-8240
either	-8241
▁ausger	-8242
▁braucht	-8243
▁territor	-8244
▁linked	-8245
▁Abs	-8246
ennis	-8247
▁einzu	-8248
▁opened	-8249
▁color	-8250
▁operations	-8251
▁gleiche	-8252
▁supporting	-8253
vements	-8254
▁graph	-8255
▁explo	-8256
▁ries	-8257
European	-8258
▁understanding	-8259
▁Kindern	-8260
▁immigration	-8261
onym	-8262
jekten	-8263
▁süd	-8264
▁ade	-8265
band	-8266
▁Umst	-8267
▁speech	-8268
aw	-8269
▁unc	-8270
reiten	-8271
▁Arten	-8272
freiheit	-8273
rahmen	-8274
▁ged	-8275
▁verbessert	-8276
atik	-8277
▁Vielfalt	-8278
aves	-8279
wirk	-8280
▁February	-8281
▁nah	-8282
▁comment	-8283
▁exclusive	-8284
▁multip	-8285
▁telephone	-8286
▁stattfinden	-8287
▁uses	-8288
▁degree	-8289
▁considerable	-8290
▁frag	-8291
▁People	-8292
▁Paul	-8293
▁kostenlos	-8294
▁Milit	-8295
▁beds	-8296
▁went	-8297
etze	-8298
▁Dateien	-8299
▁compens	-8300
gencies	-8301
▁fallen	-8302
▁marketing	-8303
▁Infrastruktur	-8304
▁map	-8305
▁Meter	-8306
ktiven	-8307
▁multil	-8308
▁Stil	-8309
▁sicherlich	-8310
▁Exp	-8311
▁Fle	-8312
▁Zweck	-8313
roh	-8314
▁tempor	-8315
▁hands	-8316
▁Schiff	-8317
▁substantial	-8318
folgend	-8319
▁lesen	-8320
nach	-8321
iques	-8322
▁entit	-8323
clude	-8324
crete	-8325
union	-8326
ora	-8327
möglich	-8328
ometer	-8329
▁Suche	-8330
bruch	-8331
▁compar	-8332
istence	-8333
gment	-8334
konferenz	-8335
▁empfehl	-8336
igem	-8337
can	-8338
▁Tar	-8339
▁abst	-8340
While	-8341
▁Einrichtungen	-8342
▁Menge	-8343
▁acqu	-8344
▁gemüt	-8345
▁presence	-8346
▁Frem	-8347
▁tourism	-8348
▁Prote	-8349
▁Klein	-8350
'."	-8351
imb	-8352
itors	-8353
▁Grundsatz	-8354
▁Glück	-8355
▁shower	-8356
▁gave	-8357
▁destro	-8358
▁save	-8359
istrib	-8360
▁abzu	-8361
▁gelangen	-8362
▁Office	-8363
▁effizient	-8364
▁darunter	-8365
▁Tun	-8366
▁Cre	-8367
▁properly	-8368
▁Standards	-8369
▁400	-8370
prüfung	-8371
▁jeweils	-8372
▁gewün	-8373
▁Wege	-8374
▁cuisine	-8375
▁gern	-8376
ussels	-8377
▁components	-8378
akfast	-8379
▁Sinn	-8380
▁playing	-8381
▁Reserv	-8382
▁brief	-8383
▁erzielen	-8384
▁Switzerland	-8385
▁Ap	-8386
▁Stimme	-8387
▁angezeigt	-8388
leitung	-8389
▁Forderung	-8390
▁scr	-8391
olden	-8392
▁delay	-8393
▁Installation	-8394
punkte	-8395
▁picture	-8396
ikanische	-8397
▁entweder	-8398
▁fisheries	-8399
▁items	-8400
▁Greece	-8401
▁Charakter	-8402
▁bott	-8403
ADS	-8404
▁purchase	-8405
ae	-8406
▁match	-8407
▁photograph	-8408
gemeine	-8409
lad	-8410
uting	-8411
▁Verwaltungs	-8412
▁door	-8413
▁duty	-8414
▁convenient	-8415
sper	-8416
▁Vereinten	-8417
prechen	-8418
umm	-8419
▁animal	-8420
TA	-8421
▁founded	-8422
zieren	-8423
▁Telefon	-8424
▁experts	-8425
chmal	-8426
▁Ü	-8427
▁erhöhen	-8428
▁dramat	-8429
▁entirely	-8430
▁coordination	-8431
maß	-8432
Now	-8433
ütze	-8434
gebaut	-8435
▁übernachten	-8436
▁ausdrücklich	-8437
▁ergän	-8438
preis	-8439
▁ging	-8440
wohner	-8441
▁Station	-8442
▁incor	-8443
▁sole	-8444
stelle	-8445
itze	-8446
itter	-8447
▁authority	-8448
2000	-8449
▁typical	-8450
▁Haup	-8451
▁format	-8452
▁refuge	-8453
▁wären	-8454
▁strict	-8455
▁gekommen	-8456
▁mobil	-8457
▁stärk	-8458
▁Economic	-8459
▁teilweise	-8460
▁Street	-8461
▁generally	-8462
No	-8463
▁Ky	-8464
▁Prag	-8465
▁untern	-8466
▁presidency	-8467
▁competitiveness	-8468
Today	-8469
schul	-8470
▁grenz	-8471
▁besuchen	-8472
▁willing	-8473
▁Völker	-8474
▁difficulties	-8475
▁tack	-8476
▁Status	-8477
▁dealing	-8478
▁welcher	-8479
During	-8480
▁technische	-8481
tempor	-8482
▁sagt	-8483
▁coffe	-8484
▁plants	-8485
räft	-8486
▁elimin	-8487
▁Pack	-8488
gal	-8489
▁ständig	-8490
IB	-8491
▁sho	-8492
▁Bush	-8493
club	-8494
▁Klimawand	-8495
▁stimme	-8496
ünen	-8497
▁Prov	-8498
▁Bereit	-8499
▁combat	-8500
▁kommenden	-8501
▁wollte	-8502
▁Entwurf	-8503
▁interpret	-8504
▁Lehr	-8505
▁Research	-8506
▁komplett	-8507
▁alte	-8508
schlossen	-8509
dis	-8510
▁hosp	-8511
▁permanent	-8512
▁Plen	-8513
▁betonen	-8514
▁Netzwerk	-8515
▁Arg	-8516
▁Datei	-8517
▁komplex	-8518
Moreover	-8519
▁chines	-8520
▁dispos	-8521
▁Belarus	-8522
▁constit	-8523
▁nieder	-8524
RA	-8525
▁criminal	-8526
▁ISO	-8527
plätze	-8528
gewicht	-8529
▁erstellt	-8530
vey	-8531
▁Apartments	-8532
▁Büro	-8533
▁relate	-8534
erstellen	-8535
▁Großbritann	-8536
▁recognis	-8537
▁organisation	-8538
▁verur	-8539
▁zuvor	-8540
▁detail	-8541
▁psych	-8542
▁Arbeiten	-8543
ünden	-8544
▁suc	-8545
▁klare	-8546
▁shops	-8547
▁informieren	-8548
▁funktioniert	-8549
ossible	-8550
▁peaceful	-8551
overy	-8552
▁handeln	-8553
füll	-8554
▁vehicles	-8555
mär	-8556
▁3-	-8557
Meine	-8558
lück	-8559
▁prä	-8560
▁facing	-8561
▁--	-8562
fachen	-8563
▁Sehens	-8564
▁Brussels	-8565
▁Ag	-8566
▁45	-8567
App	-8568
▁Bos	-8569
etter	-8570
▁htt	-8571
▁lernen	-8572
▁First	-8573
▁moral	-8574
▁thinking	-8575
▁Wirk	-8576
▁Instrumente	-8577
▁Lib	-8578
inary	-8579
▁calc	-8580
aken	-8581
▁machines	-8582
oman	-8583
▁paragraph	-8584
▁Veränderungen	-8585
pper	-8586
▁sand	-8587
▁darstellen	-8588
▁Teile	-8589
opol	-8590
▁fragen	-8591
ries	-8592
▁speaking	-8593
▁Initiativen	-8594
▁Leistungen	-8595
ameter	-8596
▁Neben	-8597
▁meetings	-8598
umn	-8599
▁Power	-8600
▁Abgeordnete	-8601
▁percent	-8602
▁é	-8603
ishes	-8604
Zweitens	-8605
▁Kol	-8606
▁adjust	-8607
▁resort	-8608
▁ober	-8609
▁Berichte	-8610
▁applies	-8611
▁Wien	-8612
portion	-8613
▁Zeitraum	-8614
▁consideration	-8615
▁average	-8616
▁sauber	-8617
las	-8618
▁trave	-8619
▁Dienste	-8620
MU	-8621
▁Guest	-8622
▁Webseite	-8623
▁district	-8624
angel	-8625
inding	-8626
▁becomes	-8627
tete	-8628
▁numbers	-8629
▁russ	-8630
▁income	-8631
▁Banken	-8632
▁Heil	-8633
▁bear	-8634
ova	-8635
▁hour	-8636
schech	-8637
▁Moment	-8638
bew	-8639
Also	-8640
▁gefordert	-8641
▁Phil	-8642
▁Rein	-8643
▁dagegen	-8644
▁Begriff	-8645
▁Engagement	-8646
4-0	-8647
▁liebe	-8648
▁Av	-8649
like	-8650
▁Verständ	-8651
-20	-8652
▁told	-8653
▁fixed	-8654
▁Februar	-8655
sb	-8656
▁Nah	-8657
▁opposition	-8658
hnung	-8659
▁Systeme	-8660
iking	-8661
▁durchaus	-8662
▁practices	-8663
▁Eisen	-8664
▁Absatz	-8665
▁konkrete	-8666
▁3,	-8667
▁Madrid	-8668
year	-8669
▁Poland	-8670
▁wenigen	-8671
▁verring	-8672
▁Bay	-8673
▁dro	-8674
▁promotion	-8675
rich	-8676
▁sorg	-8677
▁schem	-8678
▁Gipfel	-8679
▁Zeiten	-8680
▁domestic	-8681
▁Name	-8682
cts	-8683
haben	-8684
LE	-8685
▁succeed	-8686
▁Pakistan	-8687
hrase	-8688
▁stärken	-8689
▁flexibility	-8690
embly	-8691
▁unternehmen	-8692
▁sle	-8693
ashion	-8694
öffnen	-8695
▁instru	-8696
▁erleben	-8697
▁Mitgliedstaat	-8698
▁jur	-8699
▁resist	-8700
egu	-8701
lern	-8702
aker	-8703
▁gradu	-8704
▁Maschinen	-8705
27	-8706
▁Band	-8707
▁bodies	-8708
▁Übergang	-8709
▁Nutzen	-8710
ua	-8711
▁contra	-8712
▁orient	-8713
▁Fonds	-8714
▁Schn	-8715
hörde	-8716
▁Grenz	-8717
▁volle	-8718
▁NI	-8719
▁aims	-8720
▁gewährleistet	-8721
EA	-8722
CC	-8723
▁Fore	-8724
▁himself	-8725
schung	-8726
ranken	-8727
▁Herstellung	-8728
yes	-8729
qualität	-8730
illing	-8731
▁Außerdem	-8732
▁Room	-8733
reifen	-8734
▁eingesch	-8735
▁Barro	-8736
▁193	-8737
iro	-8738
SL	-8739
ißen	-8740
sport	-8741
▁propose	-8742
▁wirks	-8743
waren	-8744
▁myself	-8745
▁(3	-8746
▁lif	-8747
▁Angaben	-8748
▁lokalen	-8749
▁Hauses	-8750
▁Gebieten	-8751
▁defined	-8752
▁Health	-8753
führten	-8754
erman	-8755
▁superv	-8756
▁Kritik	-8757
▁signal	-8758
▁establishment	-8759
cknow	-8760
▁veröffentlicht	-8761
▁Anteil	-8762
▁absolut	-8763
▁erklären	-8764
esterday	-8765
isierten	-8766
▁freue	-8767
▁Risiko	-8768
▁politics	-8769
▁trägt	-8770
▁rent	-8771
▁easier	-8772
▁Kal	-8773
▁Damit	-8774
▁middle	-8775
▁advanced	-8776
isms	-8777
tte	-8778
cting	-8779
▁claim	-8780
bericht	-8781
▁Wander	-8782
▁Einigung	-8783
▁fle	-8784
▁fit	-8785
einen	-8786
▁SP	-8787
▁hält	-8788
▁hinzuf	-8789
free	-8790
worten	-8791
▁database	-8792
▁Königreich	-8793
ando	-8794
uba	-8795
▁Worte	-8796
äumen	-8797
▁http	-8798
▁benötigt	-8799
wagen	-8800
▁erfolgen	-8801
utin	-8802
▁Vill	-8803
haber	-8804
▁signed	-8805
▁früh	-8806
▁promoting	-8807
▁finanzielle	-8808
▁clar	-8809
▁failure	-8810
ée	-8811
▁Herausforderung	-8812
schrift	-8813
accept	-8814
▁Regelung	-8815
known	-8816
▁pros	-8817
▁informed	-8818
▁financing	-8819
öder	-8820
▁zul	-8821
▁parliamentary	-8822
▁6.	-8823
▁Stellungnahme	-8824
SC	-8825
ibet	-8826
▁Environment	-8827
▁acknow	-8828
▁GN	-8829
▁Rooms	-8830
▁verwende	-8831
oyal	-8832
würdigkeiten	-8833
▁erscheint	-8834
▁seriously	-8835
▁experienced	-8836
▁Ratsvorsitz	-8837
▁Tool	-8838
▁glob	-8839
▁Verfass	-8840
leistungs	-8841
▁ancient	-8842
▁Denn	-8843
▁multi	-8844
▁gering	-8845
iche	-8846
lägen	-8847
▁voice	-8848
▁nächste	-8849
wogen	-8850
▁Found	-8851
▁Rechnung	-8852
▁Vien	-8853
▁Versuch	-8854
making	-8855
pendence	-8856
lisch	-8857
▁anyone	-8858
▁Wass	-8859
▁dennoch	-8860
▁Kil	-8861
▁Prioritäten	-8862
▁Mount	-8863
▁geograph	-8864
▁möglichst	-8865
▁translation	-8866
▁coffee	-8867
da	-8868
▁length	-8869
lösung	-8870
▁PHP	-8871
qual	-8872
▁Forderungen	-8873
fa	-8874
]],	-8875
▁dangerous	-8876
ris	-8877
▁Einhaltung	-8878
▁konzentrieren	-8879
▁Atlant	-8880
Falls	-8881
▁Zweifel	-8882
üg	-8883
▁beru	-8884
▁Technik	-8885
▁hop	-8886
▁rech	-8887
▁positions	-8888
▁vere	-8889
▁cooper	-8890
icians	-8891
▁gegenseit	-8892
flanzen	-8893
▁estate	-8894
▁Zwischen	-8895
▁imag	-8896
▁klass	-8897
▁Casino	-8898
▁Sonnen	-8899
▁Kingdom	-8900
▁structures	-8901
▁differences	-8902
▁celebr	-8903
▁connected	-8904
▁erstellen	-8905
▁difference	-8906
▁models	-8907
▁associated	-8908
▁Hafen	-8909
▁klicken	-8910
▁sty	-8911
▁organiz	-8912
▁studies	-8913
erse	-8914
kle	-8915
▁stable	-8916
▁defence	-8917
▁Gewähr	-8918
ilder	-8919
▁concrete	-8920
▁übertragen	-8921
▁zerst	-8922
Mitglied	-8923
Obwohl	-8924
▁Kirche	-8925
arta	-8926
9.	-8927
Here	-8928
▁Asyl	-8929
▁instance	-8930
box	-8931
▁appears	-8932
▁Black	-8933
▁Click	-8934
▁Formen	-8935
▁withdra	-8936
4-	-8937
▁Analyse	-8938
▁Brüssel	-8939
ibrary	-8940
▁Flücht	-8941
llos	-8942
▁welcom	-8943
Soll	-8944
allel	-8945
ibel	-8946
ungsk	-8947
▁oppos	-8948
▁happened	-8949
▁Titel	-8950
peratur	-8951
▁verfolgen	-8952
▁houses	-8953
▁tut	-8954
▁unge	-8955
▁Geist	-8956
deck	-8957
▁Techn	-8958
ENT	-8959
▁implementing	-8960
▁nennen	-8961
zeption	-8962
▁Aspekt	-8963
verkehrs	-8964
▁persönlich	-8965
▁neighbour	-8966
▁Mittelmeer	-8967
▁safegu	-8968
▁unto	-8969
▁Association	-8970
▁combination	-8971
umän	-8972
greif	-8973
▁Mechan	-8974
ifiziert	-8975
▁beaches	-8976
▁adoption	-8977
www	-8978
▁Sekt	-8979
▁Aufbau	-8980
▁natur	-8981
▁humanitarian	-8982
zz	-8983
zwischen	-8984
▁amerikanischen	-8985
▁Saf	-8986
▁Gemeinsamen	-8987
▁Santa	-8988
▁names	-8989
yright	-8990
gas	-8991
▁carefully	-8992
▁accur	-8993
▁approxim	-8994
▁unaccept	-8995
▁geleistet	-8996
▁statements	-8997
▁endgült	-8998
▁umfasst	-8999
▁condem	-9000
▁spielt	-9001
▁courses	-9002
▁article	-9003
▁betrachtet	-9004
▁legen	-9005
ategory	-9006
▁Lesung	-9007
Is	-9008
ading	-9009
▁collabor	-9010
▁impossible	-9011
▁manage	-9012
▁booking	-9013
MS	-9014
▁gegründet	-9015
licherweise	-9016
▁pet	-9017
▁Kenn	-9018
▁Top	-9019
üter	-9020
tenance	-9021
▁exhibition	-9022
Ser	-9023
räume	-9024
leiten	-9025
▁Forum	-9026
person	-9027
▁producers	-9028
▁verlassen	-9029
▁agencies	-9030
▁immediate	-9031
abhängigkeit	-9032
arter	-9033
▁täglich	-9034
door	-9035
▁Leistung	-9036
inder	-9037
rollen	-9038
iffer	-9039
Bitte	-9040
aby	-9041
liefer	-9042
▁diskutieren	-9043
▁spent	-9044
▁reducing	-9045
▁Harmon	-9046
▁Terrasse	-9047
▁denken	-9048
▁positiv	-9049
stattung	-9050
body	-9051
zeugung	-9052
▁Fen	-9053
▁arrival	-9054
▁verloren	-9055
▁television	-9056
▁Stein	-9057
arischen	-9058
▁adapt	-9059
▁indire	-9060
▁unan	-9061
▁ausges	-9062
▁evidence	-9063
▁schönen	-9064
ibli	-9065
▁calling	-9066
▁truly	-9067
▁guarantees	-9068
hindert	-9069
▁attractive	-9070
DA	-9071
▁19.	-9072
▁leader	-9073
▁Jahrhunderts	-9074
stimmung	-9075
orient	-9076
▁reasonable	-9077
LAN	-9078
regel	-9079
▁fulfil	-9080
▁Sach	-9081
22	-9082
ido	-9083
▁announced	-9084
ista	-9085
▁Paket	-9086
▁behaup	-9087
▁unabhängig	-9088
▁recognition	-9089
läuf	-9090
raucher	-9091
▁described	-9092
▁cred	-9093
ny	-9094
sized	-9095
ruf	-9096
Dabei	-9097
▁erforderlichen	-9098
▁Katastrop	-9099
künd	-9100
▁shared	-9101
älter	-9102
▁feststellen	-9103
ointed	-9104
▁zweit	-9105
▁begrenz	-9106
organisation	-9107
ohlen	-9108
eing	-9109
ärm	-9110
▁Messe	-9111
▁Justice	-9112
▁genuine	-9113
▁au	-9114
▁compla	-9115
lager	-9116
▁Irish	-9117
▁satell	-9118
▁alt	-9119
▁Kompeten	-9120
▁hair	-9121
▁hören	-9122
▁architecture	-9123
zig	-9124
▁erleich	-9125
▁released	-9126
Innen	-9127
▁excess	-9128
kor	-9129
▁Zugrif	-9130
ador	-9131
▁background	-9132
▁abgeschlossen	-9133
▁charged	-9134
karten	-9135
preise	-9136
▁Texte	-9137
▁Ideen	-9138
▁garantiert	-9139
▁ahead	-9140
▁Stärkung	-9141
▁territory	-9142
▁Great	-9143
▁Achtung	-9144
▁Fernse	-9145
▁advance	-9146
olz	-9147
active	-9148
▁Dorf	-9149
▁mist	-9150
▁Vielzahl	-9151
wissen	-9152
▁Sorge	-9153
▁Mel	-9154
▁arbeitet	-9155
ugos	-9156
okraten	-9157
äck	-9158
▁improvement	-9159
▁discrimination	-9160
▁availability	-9161
▁entertain	-9162
wurf	-9163
▁EADS	-9164
▁einiger	-9165
meld	-9166
▁monetary	-9167
▁bemer	-9168
▁wishes	-9169
▁possibilities	-9170
▁Saint	-9171
▁taste	-9172
road	-9173
▁trag	-9174
▁forest	-9175
oring	-9176
▁cards	-9177
▁Nachfolgend	-9178
▁enth	-9179
▁kulturellen	-9180
ränken	-9181
▁Strom	-9182
temporary	-9183
▁überprüfen	-9184
▁schriftlich	-9185
Date	-9186
gelt	-9187
iendly	-9188
äten	-9189
▁win	-9190
▁Ruhe	-9191
sprogramm	-9192
ema	-9193
▁Umfang	-9194
▁membership	-9195
6.	-9196
olo	-9197
schriftlich	-9198
ags	-9199
▁hingewiesen	-9200
auftrag	-9201
condition	-9202
▁relaxing	-9203
▁Anwendungen	-9204
posit	-9205
jährigen	-9206
.”	-9207
irus	-9208
nam	-9209
▁unacceptable	-9210
▁Kommissions	-9211
▁Großbritannien	-9212
Script	-9213
iscal	-9214
itious	-9215
ologische	-9216
▁owners	-9217
Mar	-9218
▁nearby	-9219
▁continued	-9220
▁spl	-9221
▁consumption	-9222
▁tasks	-9223
▁Lam	-9224
ensus	-9225
▁tätig	-9226
▁isol	-9227
grade	-9228
▁stell	-9229
▁miteinander	-9230
▁Entwicklungen	-9231
▁desire	-9232
icking	-9233
gestimmt	-9234
▁ausreichend	-9235
▁participate	-9236
▁skills	-9237
gypt	-9238
▁glass	-9239
▁Hamburg	-9240
istisch	-9241
▁bezeichnet	-9242
▁cur	-9243
weist	-9244
▁unz	-9245
▁continues	-9246
▁introduce	-9247
▁figures	-9248
▁Überwachung	-9249
▁ow	-9250
▁Hersteller	-9251
▁AK	-9252
▁trading	-9253
▁7.	-9254
▁una	-9255
▁sn	-9256
▁Wand	-9257
▁cars	-9258
▁richtigen	-9259
▁delic	-9260
▁combined	-9261
▁Aussicht	-9262
▁Polize	-9263
haltet	-9264
▁greatest	-9265
▁effektiv	-9266
1-	-9267
▁Bedarf	-9268
▁21.	-9269
▁occasion	-9270
▁Wün	-9271
reten	-9272
▁generation	-9273
▁Colle	-9274
▁Allgemein	-9275
▁Wald	-9276
▁Freund	-9277
▁expend	-9278
▁haup	-9279
bieter	-9280
führungen	-9281
▁strongly	-9282
▁Democrats	-9283
▁Tourismus	-9284
▁completed	-9285
▁attach	-9286
▁Nahrungs	-9287
▁allowing	-9288
▁profitieren	-9289
▁vernünft	-9290
aration	-9291
sequent	-9292
km	-9293
▁except	-9294
▁weiterer	-9295
krieg	-9296
▁devices	-9297
▁packages	-9298
▁conv	-9299
▁unfortunately	-9300
▁raise	-9301
bindung	-9302
Natürlich	-9303
▁Element	-9304
▁Christian	-9305
eto	-9306
▁unless	-9307
▁surrounding	-9308
▁Trade	-9309
▁Zuständ	-9310
ireless	-9311
▁Konz	-9312
▁entitled	-9313
▁zahlen	-9314
▁eingeführt	-9315
bere	-9316
▁Bedürfnisse	-9317
assung	-9318
▁transition	-9319
öss	-9320
ilst	-9321
partner	-9322
▁Patienten	-9323
8.	-9324
▁Finn	-9325
▁England	-9326
▁mission	-9327
government	-9328
brauch	-9329
:0	-9330
comm	-9331
▁enables	-9332
▁gewinnen	-9333
▁Problemen	-9334
schläge	-9335
▁Komple	-9336
▁African	-9337
);	-9338
▁beauty	-9339
▁Foundation	-9340
▁attractions	-9341
▁Verletz	-9342
▁Wo	-9343
▁Rand	-9344
▁aufmerksam	-9345
öse	-9346
uble	-9347
▁Heimat	-9348
▁religious	-9349
leihen	-9350
▁Künstler	-9351
▁Wi	-9352
▁pure	-9353
▁konstru	-9354
▁erf	-9355
chem	-9356
chnet	-9357
▁Bern	-9358
▁sale	-9359
▁economies	-9360
▁registered	-9361
ikal	-9362
Do	-9363
▁square	-9364
▁burden	-9365
utch	-9366
▁river	-9367
▁geschehen	-9368
pa	-9369
▁Lo	-9370
▁command	-9371
▁meters	-9372
ylum	-9373
▁Beitritt	-9374
▁Immobilien	-9375
gesichts	-9376
▁überall	-9377
▁regionalen	-9378
Spe	-9379
▁appeal	-9380
▁vul	-9381
▁born	-9382
▁vert	-9383
▁Polen	-9384
UN	-9385
stands	-9386
estaurant	-9387
▁Diskrimin	-9388
Let	-9389
▁micro	-9390
▁Afrika	-9391
▁Versch	-9392
▁Alex	-9393
▁Effe	-9394
▁Poker	-9395
▁danach	-9396
▁Festival	-9397
▁beginnt	-9398
500	-9399
▁Wall	-9400
▁fruit	-9401
andidaten	-9402
omas	-9403
windigkeit	-9404
▁Rechnungs	-9405
▁closer	-9406
viel	-9407
▁Turkish	-9408
▁Währungs	-9409
▁insurance	-9410
▁Rome	-9411
▁Every	-9412
▁Nether	-9413
▁Bewertung	-9414
▁Vo	-9415
▁relativ	-9416
▁vorliegenden	-9417
▁Kurs	-9418
According	-9419
▁Origin	-9420
▁einsetzen	-9421
▁spezielle	-9422
▁entstanden	-9423
▁dedicated	-9424
▁Defin	-9425
allery	-9426
▁window	-9427
▁refle	-9428
▁sämtliche	-9429
▁urban	-9430
irl	-9431
▁unterstütze	-9432
cont	-9433
hören	-9434
▁surface	-9435
▁Verpflichtung	-9436
rüst	-9437
▁üb	-9438
▁exercise	-9439
▁Prime	-9440
bieten	-9441
▁bestätigt	-9442
▁"[	-9443
tzeit	-9444
ürk	-9445
▁Europeans	-9446
▁Führung	-9447
Gleich	-9448
▁besitzt	-9449
▁liter	-9450
▁Ausfl	-9451
▁Anw	-9452
▁keinerlei	-9453
▁gegenwärtig	-9454
▁Verteidigung	-9455
45	-9456
▁union	-9457
▁verfolgt	-9458
▁ST	-9459
anische	-9460
▁asylum	-9461
▁Drogen	-9462
▁holidays	-9463
version	-9464
▁Anlagen	-9465
▁kons	-9466
▁Justiz	-9467
▁Hard	-9468
rochen	-9469
▁MP	-9470
▁enormous	-9471
▁Gerichtshof	-9472
▁earth	-9473
▁grenzüber	-9474
▁folgende	-9475
onia	-9476
▁Ist	-9477
rate	-9478
linge	-9479
▁französischen	-9480
atever	-9481
▁einst	-9482
bring	-9483
ausschusses	-9484
sektor	-9485
▁individuals	-9486
▁(200	-9487
▁perspective	-9488
▁sides	-9489
▁zentrale	-9490
▁Elemente	-9491
afr	-9492
▁Globalisierung	-9493
▁Dollar	-9494
▁beteiligt	-9495
▁niedr	-9496
▁Teilnehmer	-9497
▁Partnerschaft	-9498
ram	-9499
▁2011	-9500
▁Europäer	-9501
▁politischer	-9502
with	-9503
EU	-9504
▁wachs	-9505
▁romant	-9506
▁dir	-9507
▁claims	-9508
▁vollkommen	-9509
▁totally	-9510
▁Daher	-9511
▁Priorität	-9512
▁Gre	-9513
steht	-9514
▁Verst	-9515
isierte	-9516
▁button	-9517
▁Hall	-9518
▁advertising	-9519
▁ök	-9520
▁gestalten	-9521
▁Dabei	-9522
▁vision	-9523
▁Fortschritt	-9524
▁Muse	-9525
▁nütz	-9526
100	-9527
ih	-9528
▁forced	-9529
▁notice	-9530
▁meant	-9531
gegeben	-9532
▁railway	-9533
▁reservation	-9534
Some	-9535
▁kept	-9536
▁Altstadt	-9537
▁stim	-9538
▁Out	-9539
höhung	-9540
▁Irland	-9541
▁reliable	-9542
Even	-9543
▁offensichtlich	-9544
▁installed	-9545
▁äuß	-9546
▁establishing	-9547
System	-9548
rance	-9549
▁haupts	-9550
aktionen	-9551
▁größeren	-9552
▁großes	-9553
▁Vienna	-9554
▁Worten	-9555
log	-9556
▁?	-9557
Abschließend	-9558
▁einver	-9559
▁0.	-9560
itar	-9561
mögen	-9562
fle	-9563
▁Digital	-9564
▁gram	-9565
zep	-9566
technik	-9567
▁granted	-9568
igned	-9569
▁learning	-9570
La	-9571
▁Beach	-9572
Chr	-9573
▁confir	-9574
▁luxury	-9575
▁einfache	-9576
▁Mik	-9577
▁Mun	-9578
▁ergeben	-9579
hlt	-9580
▁diss	-9581
▁Super	-9582
▁Regulation	-9583
▁Foto	-9584
▁court	-9585
istik	-9586
▁failed	-9587
▁story	-9588
▁shop	-9589
▁convinced	-9590
▁USB	-9591
▁compared	-9592
▁para	-9593
ague	-9594
▁storage	-9595
glieder	-9596
▁Breakfast	-9597
▁empfehlen	-9598
▁norm	-9599
▁gegenwärtigen	-9600
verse	-9601
▁session	-9602
▁qualit	-9603
enkt	-9604
▁urgent	-9605
▁grant	-9606
asil	-9607
▁stands	-9608
▁highlight	-9609
▁extended	-9610
▁garantieren	-9611
▁geeig	-9612
▁Last	-9613
▁Stadtz	-9614
▁device	-9615
▁Regelungen	-9616
Fi	-9617
▁Grunde	-9618
▁memory	-9619
▁reprodu	-9620
▁warten	-9621
▁Fel	-9622
▁Many	-9623
mittag	-9624
▁dauer	-9625
▁spending	-9626
▁Live	-9627
▁geschützt	-9628
iam	-9629
erma	-9630
▁biggest	-9631
▁höchste	-9632
attform	-9633
▁mountains	-9634
▁seven	-9635
▁solcher	-9636
▁forth	-9637
▁genet	-9638
▁conclusions	-9639
pal	-9640
▁gutes	-9641
▁PDF	-9642
▁Media	-9643
▁buffet	-9644
olge	-9645
▁Lake	-9646
▁Schif	-9647
. 	-9648
Tro	-9649
xts	-9650
▁science	-9651
▁Federal	-9652
▁Maße	-9653
▁verbundenen	-9654
itage	-9655
▁beige	-9656
▁passed	-9657
EO	-9658
▁grunds	-9659
▁Beteiligung	-9660
▁ru	-9661
▁Tisch	-9662
▁prison	-9663
zust	-9664
inc	-9665
▁magn	-9666
▁veget	-9667
▁internationaler	-9668
▁Mutter	-9669
teten	-9670
reisen	-9671
▁umfassende	-9672
▁controls	-9673
▁zusätzlich	-9674
▁Griechenland	-9675
▁por	-9676
uchten	-9677
▁kü	-9678
athed	-9679
▁tief	-9680
ipping	-9681
▁chair	-9682
▁Meeres	-9683
▁Barroso	-9684
▁Netherlands	-9685
onial	-9686
▁golf	-9687
▁hum	-9688
▁HT	-9689
holung	-9690
▁beinhaltet	-9691
▁unable	-9692
hebung	-9693
▁Eindruck	-9694
▁formal	-9695
▁contrary	-9696
▁corporate	-9697
▁enfor	-9698
▁advice	-9699
▁factors	-9700
prinzip	-9701
▁moving	-9702
▁finance	-9703
▁Urs	-9704
▁aufzu	-9705
▁motiv	-9706
reibt	-9707
äfen	-9708
29	-9709
▁PPE	-9710
▁Fotos	-9711
▁lä	-9712
ilot	-9713
iode	-9714
▁rob	-9715
Firstly	-9716
▁wesentlichen	-9717
Fl	-9718
det	-9719
▁Mü	-9720
oram	-9721
▁(19	-9722
ancial	-9723
▁disease	-9724
▁core	-9725
▁sogen	-9726
▁),	-9727
▁liber	-9728
alia	-9729
▁tried	-9730
▁definition	-9731
▁Nur	-9732
verein	-9733
Qu	-9734
▁dimension	-9735
▁cra	-9736
ammer	-9737
▁unit	-9738
▁ausführ	-9739
▁Control	-9740
heits	-9741
▁drawn	-9742
▁Links	-9743
▁Schön	-9744
▁Modern	-9745
▁legitim	-9746
omin	-9747
▁müs	-9748
actions	-9749
lägt	-9750
Sterne	-9751
istor	-9752
▁perfectly	-9753
▁laid	-9754
▁weapons	-9755
▁leb	-9756
iertes	-9757
isc	-9758
▁defend	-9759
▁Foreign	-9760
▁Wechsel	-9761
igrants	-9762
▁00	-9763
▁expression	-9764
▁earn	-9765
▁pour	-9766
▁scale	-9767
▁Universität	-9768
▁intervention	-9769
▁artists	-9770
▁maintenance	-9771
▁THE	-9772
▁Mond	-9773
▁Austrian	-9774
▁Nav	-9775
▁Act	-9776
▁mode	-9777
▁Drit	-9778
▁saw	-9779
▁chosen	-9780
▁Mindest	-9781
▁commitments	-9782
▁Haut	-9783
▁Eastern	-9784
▁Märkte	-9785
▁Vertrie	-9786
▁destroy	-9787
setzt	-9788
▁Größe	-9789
▁guide	-9790
▁diplomat	-9791
▁Ul	-9792
▁Michael	-9793
▁Gebrauch	-9794
▁Todes	-9795
aket	-9796
reck	-9797
worfen	-9798
stät	-9799
imit	-9800
▁Gründe	-9801
▁unf	-9802
ington	-9803
lückwün	-9804
▁Registr	-9805
reu	-9806
▁Mö	-9807
▁Budget	-9808
ügel	-9809
▁Verz	-9810
▁steigen	-9811
:30	-9812
▁condemn	-9813
▁teilnehmen	-9814
▁enor	-9815
enntnisse	-9816
▁Po	-9817
▁candidate	-9818
iced	-9819
▁freie	-9820
leun	-9821
▁1995	-9822
▁neither	-9823
vorschlag	-9824
älfte	-9825
▁Monat	-9826
▁jour	-9827
Nur	-9828
ancy	-9829
▁Presse	-9830
▁investig	-9831
▁wunderschö	-9832
▁Erklärungen	-9833
▁Greek	-9834
▁rightly	-9835
▁24-	-9836
straße	-9837
fallen	-9838
▁Vermitt	-9839
▁Palace	-9840
▁honourable	-9841
▁Städte	-9842
▁beglückwün	-9843
▁korre	-9844
EW	-9845
SQL	-9846
Aller	-9847
gibt	-9848
 %	-9849
▁betrachten	-9850
mittelt	-9851
▁Lizenz	-9852
▁Company	-9853
▁interface	-9854
äufer	-9855
▁Main	-9856
▁spa	-9857
▁Dus	-9858
▁erh	-9859
▁Gegensatz	-9860
ibliothe	-9861
▁agency	-9862
nehmern	-9863
▁IC	-9864
▁obligations	-9865
▁Market	-9866
Bar	-9867
wechsel	-9868
▁outcome	-9869
▁achieving	-9870
bald	-9871
idung	-9872
▁Constitution	-9873
28	-9874
▁Syn	-9875
▁Nutzer	-9876
▁definit	-9877
▁Unabhängigkeit	-9878
▁Wiederauf	-9879
▁Latin	-9880
▁route	-9881
▁Deutsche	-9882
bett	-9883
ternen	-9884
▁chemical	-9885
▁kos	-9886
▁balcon	-9887
apers	-9888
▁dient	-9889
▁ambitious	-9890
▁Kohäs	-9891
▁Institute	-9892
▁Trek	-9893
jet	-9894
▁speziellen	-9895
aub	-9896
▁CH	-9897
▁secret	-9898
alty	-9899
umer	-9900
ichtete	-9901
▁langen	-9902
sequently	-9903
▁outstanding	-9904
▁Fitness	-9905
▁obviously	-9906
▁Marken	-9907
35	-9908
versorgung	-9909
▁Why	-9910
▁sam	-9911
▁sched	-9912
▁Indien	-9913
▁colour	-9914
▁gelungen	-9915
▁Beschäftigungs	-9916
▁situations	-9917
▁constantly	-9918
look	-9919
uters	-9920
▁Verständnis	-9921
▁weight	-9922
▁Aktionen	-9923
▁Croat	-9924
▁Cam	-9925
wortet	-9926
asters	-9927
▁Unterkunft	-9928
uzz	-9929
fähig	-9930
▁festge	-9931
▁erhöht	-9932
urm	-9933
▁analy	-9934
▁photos	-9935
▁colleague	-9936
▁ID	-9937
▁ECU	-9938
erap	-9939
klang	-9940
▁fiscal	-9941
▁flight	-9942
governmental	-9943
▁ep	-9944
inning	-9945
ario	-9946
▁Ve	-9947
▁organised	-9948
Nun	-9949
iov	-9950
▁title	-9951
endum	-9952
▁daraus	-9953
▁limits	-9954
formationen	-9955
NL	-9956
ickt	-9957
▁Karten	-9958
▁Option	-9959
▁update	-9960
▁election	-9961
▁distin	-9962
▁Ereignisse	-9963
▁rock	-9964
▁Support	-9965
▁sensitive	-9966
▁patent	-9967
▁erfre	-9968
▁Day	-9969
▁Ear	-9970
orial	-9971
üb	-9972
▁someone	-9973
▁sell	-9974
▁britischen	-9975
▁correspond	-9976
▁continuing	-9977
▁White	-9978
▁payments	-9979
▁Sä	-9980
▁minute	-9981
Allerdings	-9982
▁surrounded	-9983
▁dur	-9984
era	-9985
▁vergleich	-9986
▁Feld	-9987
abilities	-9988
onenten	-9989
▁compat	-9990
▁vehicle	-9991
down	-9992
▁20.	-9993
▁informiert	-9994
▁starke	-9995
▁elected	-9996
▁Front	-9997
DR	-9998
utzer	-9999
▁Anlage	-10000
▁equality	-10001
▁geöffnet	-10002
▁Rob	-10003
▁defic	-10004
achsen	-10005
▁yesterday	-10006
isure	-10007
elbe	-10008
▁umwelt	-10009
▁Erde	-10010
Not	-10011
▁schöne	-10012
▁Resort	-10013
▁Check	-10014
▁Flexibilität	-10015
▁asking	-10016
knü	-10017
▁Custom	-10018
management	-10019
▁revolution	-10020
kan	-10021
▁benach	-10022
▁Süden	-10023
reitung	-10024
▁successfully	-10025
▁Bahnhof	-10026
▁privile	-10027
▁lauf	-10028
ifications	-10029
▁näher	-10030
▁Mitteln	-10031
▁Van	-10032
iefer	-10033
▁Ausland	-10034
▁reject	-10035
▁goals	-10036
▁store	-10037
real	-10038
”."	-10039
▁Realität	-10040
▁contents	-10041
▁wealth	-10042
Adr	-10043
auso	-10044
▁Ans	-10045
▁Empfehlungen	-10046
utzung	-10047
▁accessible	-10048
2010	-10049
▁organization	-10050
▁Summit	-10051
oret	-10052
▁Niveau	-10053
▁Studio	-10054
▁Beschluss	-10055
5%	-10056
▁Kopf	-10057
atures	-10058
▁Wirkung	-10059
gefähr	-10060
fest	-10061
▁sem	-10062
erry	-10063
ismen	-10064
▁Schrif	-10065
▁Fraktionen	-10066
▁Agency	-10067
▁category	-10068
▁expenditure	-10069
Last	-10070
▁cheap	-10071
▁surv	-10072
artner	-10073
reitet	-10074
▁Besonder	-10075
▁Fert	-10076
Intern	-10077
▁bound	-10078
▁massive	-10079
▁recommendations	-10080
Heute	-10081
enswert	-10082
▁exklus	-10083
▁Emiss	-10084
▁Reich	-10085
▁Darüber	-10086
▁Only	-10087
▁Pool	-10088
tellect	-10089
ktivität	-10090
ähren	-10091
▁Botschaft	-10092
ela	-10093
▁Studien	-10094
kurr	-10095
▁guter	-10096
▁aircraft	-10097
▁Mail	-10098
ky	-10099
▁überein	-10100
▁Relig	-10101
▁Hoffnung	-10102
ategorie	-10103
▁Bill	-10104
▁race	-10105
▁Dimension	-10106
▁sorgfält	-10107
▁einverstanden	-10108
upp	-10109
▁Ros	-10110
▁Datenschutz	-10111
7.	-10112
Bahn	-10113
▁Agentur	-10114
▁species	-10115
▁philosoph	-10116
▁Betriebs	-10117
▁Programms	-10118
▁mittl	-10119
▁independence	-10120
▁rig	-10121
▁allgemeine	-10122
Art	-10123
▁Zahlen	-10124
▁physical	-10125
▁rasch	-10126
Unfortunately	-10127
apter	-10128
▁grie	-10129
▁hauptsächlich	-10130
9)	-10131
lichem	-10132
▁balanced	-10133
handels	-10134
▁Private	-10135
▁einsch	-10136
▁Book	-10137
ansion	-10138
▁gehalten	-10139
▁Leistungs	-10140
▁labor	-10141
▁Martin	-10142
▁satellite	-10143
▁treten	-10144
▁beachten	-10145
▁acts	-10146
▁merely	-10147
nd	-10148
▁Lord	-10149
▁geschieht	-10150
▁Kooperation	-10151
▁ideale	-10152
▁nar	-10153
unehm	-10154
▁niemand	-10155
▁außerord	-10156
▁Architektur	-10157
wers	-10158
▁targets	-10159
reis	-10160
▁Beihilfen	-10161
▁Gebiete	-10162
▁consists	-10163
▁intention	-10164
▁festgestellt	-10165
▁dé	-10166
▁Voraussetzungen	-10167
abl	-10168
obility	-10169
▁furnished	-10170
▁10.	-10171
gbarkeit	-10172
▁Liberalisierung	-10173
▁Farben	-10174
▁manchmal	-10175
eind	-10176
cast	-10177
Never	-10178
otten	-10179
▁türk	-10180
▁lake	-10181
▁pun	-10182
▁Data	-10183
▁reve	-10184
▁möglichen	-10185
▁herzlich	-10186
▁contained	-10187
▁mittels	-10188
▁einzigen	-10189
abled	-10190
▁Gesetzgebung	-10191
▁Gegenteil	-10192
▁changing	-10193
▁communities	-10194
▁Typ	-10195
▁Fire	-10196
▁Garden	-10197
▁Palestinian	-10198
▁contemporary	-10199
ünfte	-10200
▁preserv	-10201
▁jüngsten	-10202
▁spricht	-10203
▁unternommen	-10204
▁approximately	-10205
▁jungen	-10206
▁Arbeitsmarkt	-10207
▁Militär	-10208
▁sage	-10209
▁dynamic	-10210
▁ausländ	-10211
▁dete	-10212
▁waiting	-10213
▁landscape	-10214
▁Vorteil	-10215
imal	-10216
▁gebe	-10217
▁sobald	-10218
▁putting	-10219
▁Alban	-10220
▁Apparte	-10221
▁Risiken	-10222
rupt	-10223
▁vorgeschlagenen	-10224
wachst	-10225
▁enhan	-10226
bürger	-10227
▁Grundrechte	-10228
▁prevention	-10229
▁Verkauf	-10230
▁(""	-10231
▁participants	-10232
zil	-10233
▁Gaz	-10234
▁Bla	-10235
▁grounds	-10236
▁disposal	-10237
Os	-10238
▁mechanism	-10239
aschen	-10240
verw	-10241
▁smaller	-10242
▁bringing	-10243
▁schneller	-10244
▁kaufen	-10245
Vers	-10246
▁erfordert	-10247
odurch	-10248
▁prospect	-10249
▁übernommen	-10250
▁Erwart	-10251
▁bars	-10252
▁submit	-10253
cap	-10254
▁Schm	-10255
▁Peter	-10256
▁glad	-10257
annung	-10258
▁leads	-10259
▁pointed	-10260
▁swe	-10261
▁nationaler	-10262
PC	-10263
▁Zoll	-10264
▁slight	-10265
▁fraud	-10266
▁Square	-10267
▁36	-10268
ählten	-10269
▁quot	-10270
▁gewiss	-10271
▁guaranteed	-10272
▁AR	-10273
▁resulting	-10274
▁planned	-10275
▁selten	-10276
inent	-10277
▁Kontroll	-10278
▁Slow	-10279
vereign	-10280
▁teilen	-10281
▁convention	-10282
▁damals	-10283
▁webs	-10284
ask	-10285
dict	-10286
oster	-10287
▁count	-10288
▁Marketing	-10289
▁sovereign	-10290
▁blog	-10291
▁abhäng	-10292
▁III	-10293
▁Gent	-10294
▁persönliche	-10295
▁ap	-10296
▁write	-10297
▁cool	-10298
ulating	-10299
▁factor	-10300
▁Alliance	-10301
▁Quest	-10302
asen	-10303
▁Treffen	-10304
▁Jac	-10305
▁zunehm	-10306
▁Journal	-10307
▁Manager	-10308
artet	-10309
▁gewünsch	-10310
▁strengthening	-10311
▁causes	-10312
▁vieler	-10313
▁operate	-10314
Indeed	-10315
▁seeking	-10316
▁regelmäßig	-10317
utr	-10318
rant	-10319
▁Beob	-10320
endung	-10321
▁Phase	-10322
▁capable	-10323
▁Mitgliedern	-10324
▁pill	-10325
ränkungen	-10326
▁Fischer	-10327
▁zugleich	-10328
hel	-10329
▁betroffenen	-10330
wegs	-10331
▁acceptable	-10332
▁EN	-10333
▁dig	-10334
▁Mitglieds	-10335
8)	-10336
▁32	-10337
▁anbieten	-10338
akete	-10339
▁Friedens	-10340
Produ	-10341
istenz	-10342
▁Hauptstadt	-10343
▁MEP	-10344
▁andererseits	-10345
▁conclude	-10346
edes	-10347
arium	-10348
▁beob	-10349
▁berecht	-10350
▁wodurch	-10351
▁Prüfung	-10352
▁pleasure	-10353
krat	-10354
ques	-10355
ermaßen	-10356
▁31	-10357
▁medizin	-10358
vely	-10359
istungs	-10360
ints	-10361
▁Männer	-10362
going	-10363
▁nachhaltige	-10364
▁retain	-10365
ausende	-10366
ventions	-10367
cco	-10368
omit	-10369
weiten	-10370
▁brings	-10371
▁praktisch	-10372
▁ung	-10373
▁examples	-10374
▁Bestandteil	-10375
▁Island	-10376
▁zählen	-10377
▁id	-10378
▁Rules	-10379
Schließlich	-10380
Zur	-10381
▁nav	-10382
▁Work	-10383
▁Gesam	-10384
▁Us	-10385
▁underg	-10386
▁Niederl	-10387
▁Teilnahme	-10388
▁registration	-10389
▁manufacturing	-10390
▁vorschlagen	-10391
ieb	-10392
()	-10393
iene	-10394
▁gemeinschaft	-10395
▁valu	-10396
richtlinie	-10397
▁Touristen	-10398
▁verk	-10399
ifellos	-10400
▁Politiker	-10401
▁letter	-10402
ssystem	-10403
SV	-10404
▁Experten	-10405
▁Sprach	-10406
▁recovery	-10407
▁lov	-10408
▁identity	-10409
TP	-10410
▁assum	-10411
▁toler	-10412
▁argument	-10413
äume	-10414
▁schn	-10415
cling	-10416
▁band	-10417
▁spaces	-10418
▁explain	-10419
▁fashion	-10420
▁beschäftigt	-10421
▁nearly	-10422
wiesen	-10423
▁association	-10424
gesellschaften	-10425
wendungs	-10426
▁safeguard	-10427
▁zunehmend	-10428
▁Syr	-10429
▁surpr	-10430
,00	-10431
▁Back	-10432
▁Chamber	-10433
▁Erhöhung	-10434
▁Hälfte	-10435
uttle	-10436
▁erneuer	-10437
▁sichern	-10438
▁acht	-10439
▁Koordinierung	-10440
rist	-10441
ablen	-10442
hann	-10443
▁Hor	-10444
▁kleiner	-10445
▁Landschaft	-10446
▁weg	-10447
▁zone	-10448
▁echte	-10449
▁Überprüfung	-10450
▁decades	-10451
▁wichtigste	-10452
▁fuel	-10453
iot	-10454
mlich	-10455
▁adequate	-10456
▁Effizienz	-10457
gin	-10458
▁Blog	-10459
▁Ban	-10460
▁governance	-10461
▁Teilen	-10462
▁traditionellen	-10463
▁Gefühl	-10464
"")	-10465
Ins	-10466
▁Komb	-10467
▁irgende	-10468
▁multiple	-10469
▁250	-10470
ierend	-10471
▁incorpor	-10472
ource	-10473
▁siehe	-10474
▁Anpassung	-10475
▁Cypr	-10476
▁sieben	-10477
aul	-10478
▁proportion	-10479
▁Pflicht	-10480
zwungen	-10481
▁password	-10482
▁print	-10483
▁2009,	-10484
warz	-10485
▁sets	-10486
eshalb	-10487
▁trend	-10488
▁withdraw	-10489
Dem	-10490
lebt	-10491
▁Gedanken	-10492
ress	-10493
▁steel	-10494
▁requested	-10495
▁grammat	-10496
▁Internationalen	-10497
splan	-10498
kunden	-10499
▁regret	-10500
▁Akte	-10501
gestellten	-10502
▁consensus	-10503
▁nations	-10504
▁Fax	-10505
▁southern	-10506
▁Vorbereitung	-10507
▁therm	-10508
organisationen	-10509
▁attacks	-10510
▁patients	-10511
ktop	-10512
▁Lag	-10513
▁truth	-10514
▁Nichtraucher	-10515
▁thereby	-10516
▁OS	-10517
▁Laufe	-10518
▁besseren	-10519
▁optimal	-10520
▁Kaffe	-10521
place	-10522
▁divid	-10523
sprüche	-10524
▁vulner	-10525
selben	-10526
▁Korea	-10527
▁discussing	-10528
▁Royal	-10529
▁addressed	-10530
issens	-10531
▁attend	-10532
▁driving	-10533
▁versions	-10534
▁liability	-10535
odes	-10536
station	-10537
▁seitens	-10538
▁hergestellt	-10539
▁testing	-10540
▁JavaScript	-10541
hrt	-10542
▁Chem	-10543
▁consolid	-10544
iring	-10545
▁elegan	-10546
▁industries	-10547
▁lau	-10548
▁Publik	-10549
iquid	-10550
legte	-10551
sprach	-10552
▁Norden	-10553
otenzial	-10554
▁Absicht	-10555
▁12.	-10556
▁Pic	-10557
▁Klimaanlage	-10558
▁representative	-10559
üben	-10560
▁Mat	-10561
▁primary	-10562
▁deutsche	-10563
▁kinds	-10564
▁primarily	-10565
▁fällt	-10566
▁Einkaufs	-10567
▁Bosn	-10568
▁weiteres	-10569
▁explan	-10570
▁Streit	-10571
▁Ordnung	-10572
▁sec	-10573
▁Ausnahme	-10574
▁River	-10575
▁Charter	-10576
▁Zimmern	-10577
sid	-10578
aces	-10579
▁copy	-10580
▁previously	-10581
lichten	-10582
▁inhab	-10583
▁diskutiert	-10584
▁respekt	-10585
▁afford	-10586
Every	-10587
▁Sweden	-10588
▁Dutch	-10589
▁Maria	-10590
gänglich	-10591
▁Merk	-10592
▁Bol	-10593
▁Methode	-10594
▁vielfält	-10595
position	-10596
▁reinfor	-10597
ror	-10598
produktion	-10599
▁schools	-10600
Once	-10601
▁talks	-10602
▁mail	-10603
▁master	-10604
▁kürzlich	-10605
▁Diskriminierung	-10606
▁disch	-10607
3)	-10608
phrase	-10609
▁expensive	-10610
ocal	-10611
▁begann	-10612
▁blue	-10613
ampagne	-10614
▁School	-10615
▁jemand	-10616
▁Methoden	-10617
iest	-10618
pielt	-10619
enture	-10620
▁remove	-10621
▁junge	-10622
äger	-10623
▁phase	-10624
▁ta	-10625
Nevertheless	-10626
▁aktual	-10627
▁Zuf	-10628
▁5-	-10629
▁Inseln	-10630
▁finde	-10631
▁8.	-10632
▁kontext	-10633
▁evaluation	-10634
▁authent	-10635
zeß	-10636
▁conduct	-10637
▁verteid	-10638
lesen	-10639
bereiche	-10640
Mein	-10641
AB	-10642
▁reagieren	-10643
▁orders	-10644
▁willkommen	-10645
iling	-10646
▁Repr	-10647
▁globale	-10648
▁Veranstaltungen	-10649
ahrt	-10650
nahm	-10651
▁akzeptiert	-10652
▁Stadtzentrum	-10653
▁Nik	-10654
▁eight	-10655
icon	-10656
entscheid	-10657
▁einzelne	-10658
▁fif	-10659
lebnis	-10660
▁turned	-10661
ktions	-10662
ädt	-10663
▁lag	-10664
gramms	-10665
▁Willen	-10666
▁demokratische	-10667
▁bio	-10668
▁dealt	-10669
atlant	-10670
border	-10671
▁Gästen	-10672
aks	-10673
▁Lu	-10674
▁Also	-10675
tellectual	-10676
▁100%	-10677
▁Eltern	-10678
▁determined	-10679
Ger	-10680
iegen	-10681
▁audio	-10682
▁zunehmen	-10683
▁ländlichen	-10684
▁journal	-10685
-3	-10686
▁Angriff	-10687
▁gewählt	-10688
TE	-10689
iern	-10690
▁His	-10691
zahlung	-10692
▁Jose	-10693
▁diesbe	-10694
▁sinnvoll	-10695
ahnen	-10696
▁flow	-10697
fangen	-10698
▁fried	-10699
iser	-10700
▁delivered	-10701
ady	-10702
▁mutual	-10703
▁waters	-10704
▁Eth	-10705
strategie	-10706
▁named	-10707
▁behandeln	-10708
zur	-10709
igern	-10710
▁nation	-10711
▁books	-10712
▁4,	-10713
ported	-10714
▁betont	-10715
▁Dublin	-10716
▁angeht	-10717
Neben	-10718
▁capt	-10719
▁opposite	-10720
▁corner	-10721
▁Romania	-10722
▁bere	-10723
kret	-10724
licit	-10725
▁anerkannt	-10726
▁BM	-10727
Erstens	-10728
Den	-10729
▁Übern	-10730
▁Berücksicht	-10731
▁genü	-10732
▁Verhältnis	-10733
▁mel	-10734
▁bran	-10735
▁190	-10736
▁amongst	-10737
kund	-10738
enter	-10739
ciliation	-10740
cor	-10741
ipe	-10742
▁cook	-10743
▁Revolution	-10744
▁extreme	-10745
▁Energy	-10746
-200	-10747
anger	-10748
▁Details	-10749
▁prepare	-10750
▁Veröffent	-10751
▁verstärkt	-10752
kräfte	-10753
▁Autor	-10754
▁Provin	-10755
▁berühmten	-10756
ungsverfahren	-10757
▁Formular	-10758
▁Fähigkeit	-10759
MA	-10760
▁positiven	-10761
aci	-10762
▁Freizeit	-10763
▁nochmals	-10764
ancen	-10765
▁Andre	-10766
sein	-10767
▁diversity	-10768
cluding	-10769
▁bon	-10770
▁doll	-10771
▁Pin	-10772
metho	-10773
ouver	-10774
tten	-10775
▁mechanisms	-10776
▁Sun	-10777
fers	-10778
▁vorbe	-10779
▁griech	-10780
▁unanim	-10781
▁Anliegen	-10782
lege	-10783
unsten	-10784
▁begonnen	-10785
▁bewegen	-10786
▁Reaktion	-10787
sph	-10788
▁Einklang	-10789
kurs	-10790
▁onto	-10791
▁dritten	-10792
▁Glas	-10793
▁belong	-10794
▁investments	-10795
▁Prakt	-10796
dere	-10797
▁snow	-10798
fügt	-10799
▁gespe	-10800
▁Tai	-10801
plant	-10802
▁Tiere	-10803
▁systemat	-10804
▁territorial	-10805
griffe	-10806
▁qualified	-10807
▁wall	-10808
▁Alter	-10809
▁sicherstellen	-10810
▁Entsp	-10811
▁Valle	-10812
▁accounts	-10813
tehen	-10814
▁vielmehr	-10815
7)	-10816
▁führenden	-10817
▁imper	-10818
▁Umständen	-10819
▁manufacturers	-10820
▁dry	-10821
▁feeling	-10822
▁thre	-10823
EF	-10824
▁Zustand	-10825
dete	-10826
▁Los	-10827
▁urge	-10828
▁Rumän	-10829
oß	-10830
▁Graf	-10831
quir	-10832
▁diverse	-10833
▁consultation	-10834
absicht	-10835
▁umgeben	-10836
▁spät	-10837
▁leiden	-10838
▁pension	-10839
BS	-10840
▁Via	-10841
▁repeated	-10842
gro	-10843
▁gesellschaft	-10844
▁exceed	-10845
▁leadership	-10846
grundlage	-10847
▁Sonn	-10848
▁Minderheiten	-10849
▁moved	-10850
▁technological	-10851
▁bureau	-10852
▁Stunde	-10853
▁Jahrzehn	-10854
▁skin	-10855
▁grand	-10856
▁48	-10857
bereitet	-10858
▁Minutes	-10859
▁Fälle	-10860
▁noise	-10861
▁verlieren	-10862
▁OF	-10863
jection	-10864
stoffen	-10865
▁charming	-10866
▁Dach	-10867
▁marked	-10868
▁18.	-10869
▁Church	-10870
imately	-10871
AV	-10872
iary	-10873
▁attemp	-10874
sec	-10875
▁fand	-10876
gence	-10877
▁Klimawandel	-10878
▁Unterschiede	-10879
▁Prodi	-10880
▁attitude	-10881
stat	-10882
▁800	-10883
essor	-10884
mo	-10885
▁Verbesser	-10886
▁barr	-10887
▁Vision	-10888
folgerungen	-10889
▁ehemaligen	-10890
▁Rotary	-10891
▁Class	-10892
▁überzeugen	-10893
akers	-10894
▁Fluss	-10895
▁schlecht	-10896
iana	-10897
▁Patent	-10898
▁zustimmen	-10899
▁Any	-10900
▁meist	-10901
75	-10902
▁zuverläss	-10903
▁Old	-10904
▁Flä	-10905
folio	-10906
▁Press	-10907
▁rejected	-10908
▁hall	-10909
▁beruf	-10910
▁spot	-10911
▁Champ	-10912
▁existence	-10913
▁Kong	-10914
▁Flash	-10915
▁ergriffen	-10916
▁derzeitigen	-10917
dex	-10918
▁Autob	-10919
▁Stück	-10920
▁bedarf	-10921
▁runs	-10922
orgnis	-10923
fertigt	-10924
▁Fenster	-10925
▁improvements	-10926
▁Tit	-10927
▁whe	-10928
Nicht	-10929
Lassen	-10930
termine	-10931
▁eye	-10932
venue	-10933
ieties	-10934
▁inten	-10935
▁knows	-10936
▁reply	-10937
▁Wachstums	-10938
▁compliance	-10939
▁Einwanderung	-10940
▁Verfügbarkeit	-10941
▁Pop	-10942
kehren	-10943
igerung	-10944
uries	-10945
zahlt	-10946
▁helping	-10947
▁Grenze	-10948
▁experiences	-10949
▁vorgenommen	-10950
▁starken	-10951
Viele	-10952
struction	-10953
zed	-10954
izont	-10955
▁befassen	-10956
▁Kombination	-10957
▁SD	-10958
▁significantly	-10959
▁gewisse	-10960
▁illustr	-10961
gg	-10962
▁destru	-10963
▁Freude	-10964
▁Diskussionen	-10965
berecht	-10966
▁Win	-10967
▁wiederum	-10968
▁schließen	-10969
▁lock	-10970
▁blood	-10971
jährige	-10972
▁Handeln	-10973
▁seien	-10974
▁fordert	-10975
▁shape	-10976
▁Argent	-10977
▁dele	-10978
▁wait	-10979
▁heavy	-10980
▁Schäden	-10981
▁Gut	-10982
▁Express	-10983
TER	-10984
igence	-10985
▁stone	-10986
▁requests	-10987
▁streets	-10988
▁Kurz	-10989
uy	-10990
▁nötig	-10991
oples	-10992
weite	-10993
mechan	-10994
▁Bio	-10995
ani	-10996
wood	-10997
sichts	-10998
ikte	-10999
▁dah	-11000
▁arms	-11001
kunfts	-11002
▁bildet	-11003
uropäischen	-11004
▁competence	-11005
gebracht	-11006
▁leisure	-11007
▁Erwach	-11008
▁abgele	-11009
Ist	-11010
itime	-11011
▁konkreten	-11012
▁recommended	-11013
öp	-11014
▁permit	-11015
▁Präs	-11016
▁Obama	-11017
▁Perspekt	-11018
▁betreffen	-11019
▁unterschiedlich	-11020
▁transform	-11021
akten	-11022
orough	-11023
▁politisch	-11024
owned	-11025
▁launched	-11026
▁fed	-11027
▁Gesetze	-11028
▁Ton	-11029
▁privacy	-11030
▁laut	-11031
▁expertise	-11032
▁landwirtschaft	-11033
Einige	-11034
▁birth	-11035
ispiele	-11036
▁speakers	-11037
▁straight	-11038
größ	-11039
lechter	-11040
▁treated	-11041
nes	-11042
meister	-11043
▁welchen	-11044
▁1980	-11045
▁Kunde	-11046
geht	-11047
▁Special	-11048
ikas	-11049
füllung	-11050
▁120	-11051
▁Balt	-11052
▁läuft	-11053
▁binding	-11054
onte	-11055
▁Financial	-11056
▁consistent	-11057
▁Adresse	-11058
▁bedrooms	-11059
▁obligation	-11060
eds	-11061
▁Spiele	-11062
▁Untersuchung	-11063
▁cm	-11064
▁drugs	-11065
▁piece	-11066
klärung	-11067
▁Pflanzen	-11068
▁Dann	-11069
▁rot	-11070
schaffen	-11071
▁expectations	-11072
pped	-11073
▁switch	-11074
▁configur	-11075
▁Roh	-11076
▁Mach	-11077
▁felt	-11078
▁)."	-11079
▁Its	-11080
uj	-11081
abilität	-11082
▁Freunde	-11083
▁recognise	-11084
▁presentation	-11085
▁compensation	-11086
istribution	-11087
heber	-11088
▁keines	-11089
▁Kollege	-11090
entwurf	-11091
▁websites	-11092
▁sanctions	-11093
▁subsidiar	-11094
▁Lö	-11095
▁Wür	-11096
▁Dienstleistungs	-11097
▁destination	-11098
▁spok	-11099
stände	-11100
▁units	-11101
▁Theater	-11102
▁Morgen	-11103
▁Strukturfonds	-11104
zubauen	-11105
▁Law	-11106
▁parad	-11107
geiz	-11108
▁fir	-11109
SA	-11110
vak	-11111
▁emphasis	-11112
▁Most	-11113
fare	-11114
86	-11115
▁Sud	-11116
ährt	-11117
▁engag	-11118
▁Grundsätze	-11119
▁sleep	-11120
▁Rich	-11121
▁Unterschied	-11122
iating	-11123
▁vess	-11124
züg	-11125
▁flat	-11126
▁furniture	-11127
▁dishes	-11128
lause	-11129
▁umfass	-11130
▁EG	-11131
teen	-11132
▁wirksam	-11133
beziehung	-11134
▁lose	-11135
▁Egypt	-11136
▁User	-11137
▁Satell	-11138
▁basiert	-11139
▁browser	-11140
▁Os	-11141
▁Kyoto	-11142
▁Que	-11143
handlungs	-11144
Trotz	-11145
▁Angebote	-11146
▁represented	-11147
▁0,	-11148
▁Ferienwohn	-11149
uds	-11150
▁comply	-11151
▁Allgemeinen	-11152
33	-11153
▁genauso	-11154
▁extension	-11155
car	-11156
▁output	-11157
▁kompliz	-11158
▁Eigenschaften	-11159
sparte	-11160
▁default	-11161
ettbewerbs	-11162
▁600	-11163
ameras	-11164
▁sprach	-11165
▁resolve	-11166
ati	-11167
▁Brazil	-11168
▁entlang	-11169
▁parallel	-11170
▁Non	-11171
▁Antworten	-11172
▁verlangen	-11173
▁substances	-11174
▁Zul	-11175
stance	-11176
▁exists	-11177
▁abhängig	-11178
▁applicable	-11179
▁sights	-11180
▁gestern	-11181
alys	-11182
▁Menü	-11183
▁Englisch	-11184
hop	-11185
▁Straf	-11186
▁Westen	-11187
,""	-11188
vol	-11189
21	-11190
ichteten	-11191
▁relatively	-11192
▁beiz	-11193
▁bezieht	-11194
theit	-11195
▁Herk	-11196
▁Kreat	-11197
▁stations	-11198
▁Definition	-11199
▁wild	-11200
ischung	-11201
▁dict	-11202
▁proud	-11203
▁fantastic	-11204
▁Ca	-11205
atre	-11206
▁trees	-11207
formance	-11208
▁trial	-11209
▁Schwerpunkt	-11210
▁Signal	-11211
▁zeich	-11212
▁Ref	-11213
erungs	-11214
▁kor	-11215
▁deiner	-11216
DS	-11217
▁Gewinn	-11218
▁Instit	-11219
▁Zahlungs	-11220
▁older	-11221
kop	-11222
uste	-11223
▁Jes	-11224
▁Schloss	-11225
▁Rub	-11226
bahnhof	-11227
▁München	-11228
grad	-11229
rans	-11230
▁operators	-11231
▁dog	-11232
▁Kranken	-11233
▁wichtiges	-11234
▁Leitlinien	-11235
▁helps	-11236
▁taxes	-11237
▁entered	-11238
ti	-11239
▁trotzdem	-11240
▁Datenbank	-11241
▁Munich	-11242
▁refugees	-11243
otte	-11244
▁Premier	-11245
▁keeping	-11246
▁latter	-11247
▁umfassenden	-11248
▁error	-11249
▁Dokumente	-11250
4)	-11251
▁Johann	-11252
▁appreciate	-11253
▁vast	-11254
▁adj	-11255
abling	-11256
▁reicht	-11257
▁objects	-11258
▁Maßnahme	-11259
▁approval	-11260
49	-11261
zza	-11262
rote	-11263
ossen	-11264
▁Jean	-11265
▁rare	-11266
▁spezial	-11267
rechten	-11268
ifall	-11269
▁Paper	-11270
▁articles	-11271
spar	-11272
▁liefern	-11273
▁geist	-11274
▁emphasise	-11275
tragung	-11276
Christ	-11277
▁alter	-11278
▁tests	-11279
lles	-11280
▁centres	-11281
Gr	-11282
▁gepr	-11283
▁führte	-11284
Programm	-11285
▁Thank	-11286
▁Jack	-11287
▁advantages	-11288
Viel	-11289
netz	-11290
▁discharge	-11291
▁regionale	-11292
▁Amerika	-11293
▁Bewegung	-11294
▁hoher	-11295
▁senden	-11296
▁affairs	-11297
▁Bedenken	-11298
▁whatever	-11299
▁ziemlich	-11300
▁italienischen	-11301
▁cold	-11302
▁Genehm	-11303
▁Holl	-11304
▁Rund	-11305
▁Schulden	-11306
OP	-11307
▁Hong	-11308
edish	-11309
schule	-11310
▁Bör	-11311
▁favor	-11312
▁arrangements	-11313
▁Lou	-11314
▁whilst	-11315
antly	-11316
ochen	-11317
▁Küste	-11318
wirt	-11319
▁Während	-11320
▁sod	-11321
▁wenden	-11322
▁bekannten	-11323
what	-11324
▁mini	-11325
anke	-11326
▁Austausch	-11327
win	-11328
▁estim	-11329
läne	-11330
▁Zusatz	-11331
▁delegation	-11332
▁Sound	-11333
hard	-11334
▁obst	-11335
ätzung	-11336
▁engineering	-11337
fä	-11338
usal	-11339
▁temperature	-11340
obe	-11341
okument	-11342
▁Ministers	-11343
▁unmittelbar	-11344
Cl	-11345
▁Verbrechen	-11346
▁respective	-11347
▁helped	-11348
urger	-11349
ilding	-11350
▁entre	-11351
▁Zugriff	-11352
▁ye	-11353
▁plug	-11354
▁Tibet	-11355
▁happens	-11356
▁od	-11357
▁dinner	-11358
▁religi	-11359
▁Fremden	-11360
▁außergewöhn	-11361
▁Wahrheit	-11362
▁texts	-11363
▁GM	-11364
▁adap	-11365
region	-11366
oßen	-11367
▁finding	-11368
▁suffering	-11369
▁maß	-11370
▁involving	-11371
▁entertainment	-11372
▁erhältlich	-11373
▁Technology	-11374
politischen	-11375
ito	-11376
▁Sanktionen	-11377
▁foll	-11378
behörden	-11379
▁personally	-11380
▁historische	-11381
uchte	-11382
▁peoples	-11383
maschinen	-11384
▁Amts	-11385
▁Of	-11386
▁eur	-11387
▁Besitz	-11388
▁9.	-11389
▁David	-11390
▁angep	-11391
▁Berufs	-11392
irk	-11393
reds	-11394
▁politicians	-11395
▁disaster	-11396
,”	-11397
ergie	-11398
▁höhere	-11399
▁Verträge	-11400
▁si	-11401
Per	-11402
prech	-11403
▁falsch	-11404
Many	-11405
▁exclusively	-11406
▁complic	-11407
▁naturally	-11408
code	-11409
▁danger	-11410
▁reichen	-11411
ér	-11412
▁Konsequ	-11413
▁thorough	-11414
inations	-11415
wareness	-11416
unktions	-11417
▁Bestell	-11418
▁erweitert	-11419
▁Umweltschutz	-11420
▁Rock	-11421
ichtig	-11422
▁covers	-11423
▁valuable	-11424
amerika	-11425
Fe	-11426
trächt	-11427
▁Beweis	-11428
flug	-11429
▁kommun	-11430
▁Strategien	-11431
▁tours	-11432
▁diseases	-11433
▁beschrieben	-11434
▁entspannen	-11435
quellen	-11436
vec	-11437
▁engl	-11438
▁Schule	-11439
▁spectac	-11440
Bet	-11441
▁recognised	-11442
▁verf	-11443
tellte	-11444
▁zuge	-11445
▁Player	-11446
▁Komment	-11447
▁beträgt	-11448
▁Heute	-11449
▁Apartment	-11450
▁17.	-11451
▁Plaza	-11452
▁eröffnet	-11453
▁Erwä	-11454
gelassen	-11455
▁gather	-11456
Just	-11457
▁intend	-11458
▁museum	-11459
▁Landwirte	-11460
▁spring	-11461
rüstung	-11462
▁Strategy	-11463
UM	-11464
spruchs	-11465
▁gült	-11466
▁Skype	-11467
▁zusätzlichen	-11468
fällen	-11469
▁Empfehlung	-11470
Wel	-11471
acher	-11472
neter	-11473
▁weltweiten	-11474
▁5,	-11475
▁Rec	-11476
GB	-11477
▁Tom	-11478
▁breat	-11479
▁künftig	-11480
▁opposed	-11481
baut	-11482
Because	-11483
zin	-11484
uführen	-11485
▁Exec	-11486
isory	-11487
▁Gesicht	-11488
▁journey	-11489
oli	-11490
kommt	-11491
ulted	-11492
▁Radio	-11493
▁Fahrzeug	-11494
▁entdecken	-11495
▁threaten	-11496
ruct	-11497
▁1000	-11498
▁strugg	-11499
▁koordin	-11500
▁erscheinen	-11501
new	-11502
Ben	-11503
▁util	-11504
flächen	-11505
▁firstly	-11506
▁mobility	-11507
▁Delegation	-11508
▁intellectual	-11509
▁Opp	-11510
▁confirmed	-11511
▁Atom	-11512
▁pick	-11513
▁inf	-11514
▁grundlegenden	-11515
west	-11516
ev	-11517
urd	-11518
hi	-11519
▁Div	-11520
ucher	-11521
▁Baum	-11522
▁conserv	-11523
▁Klim	-11524
▁fill	-11525
▁Herkun	-11526
izz	-11527
Please	-11528
▁Essen	-11529
▁Malt	-11530
▁Master	-11531
pers	-11532
▁hostels	-11533
▁outdoor	-11534
▁Know	-11535
▁kurzem	-11536
Br	-11537
▁Hinweis	-11538
▁Nachfrage	-11539
üren	-11540
▁solve	-11541
essene	-11542
tran	-11543
class	-11544
▁weather	-11545
▁zugänglich	-11546
▁schwierigen	-11547
▁Bor	-11548
reuung	-11549
▁repeat	-11550
▁renewable	-11551
▁residence	-11552
▁Materialien	-11553
idden	-11554
▁interessiert	-11555
dessen	-11556
▁Suite	-11557
▁Voraussetzung	-11558
uden	-11559
▁gefördert	-11560
▁Erwartungen	-11561
▁figure	-11562
▁obtained	-11563
▁cloth	-11564
trieben	-11565
▁familiar	-11566
▁Monte	-11567
uens	-11568
▁dans	-11569
▁geprü	-11570
oler	-11571
▁Ungleich	-11572
▁Each	-11573
▁Angel	-11574
▁Berichterstat	-11575
▁voller	-11576
▁Swedish	-11577
▁sofern	-11578
chron	-11579
▁Wirklichkeit	-11580
▁combating	-11581
▁Mittelpunkt	-11582
▁15.	-11583
▁millions	-11584
achte	-11585
ichtbar	-11586
▁Administr	-11587
▁exceptional	-11588
ikes	-11589
inken	-11590
▁Heiz	-11591
▁faced	-11592
▁schönsten	-11593
▁discovered	-11594
▁wesentliche	-11595
36	-11596
uing	-11597
iform	-11598
ventionen	-11599
andon	-11600
▁passengers	-11601
▁directives	-11602
▁laufen	-11603
▁exem	-11604
▁bedeuten	-11605
▁besitzen	-11606
bauen	-11607
deten	-11608
stes	-11609
hme	-11610
öger	-11611
ändler	-11612
▁looks	-11613
ugnisse	-11614
▁Nachrichten	-11615
▁Action	-11616
▁eigenes	-11617
▁läng	-11618
far	-11619
▁Umgang	-11620
▁Hindern	-11621
▁Beratung	-11622
▁Studie	-11623
▁contro	-11624
▁involvement	-11625
▁offices	-11626
▁jährlich	-11627
▁determine	-11628
▁hilft	-11629
▁öffnen	-11630
▁Eisenbahn	-11631
▁direkte	-11632
▁kulturelle	-11633
▁largely	-11634
▁chain	-11635
▁Studenten	-11636
▁außen	-11637
actory	-11638
▁niemals	-11639
▁einerseits	-11640
▁geschrieben	-11641
▁soft	-11642
▁Ambiente	-11643
pol	-11644
Europe	-11645
stehenden	-11646
▁zweifellos	-11647
azine	-11648
▁Safety	-11649
▁Badezimmer	-11650
Up	-11651
▁obstac	-11652
CS	-11653
▁Massen	-11654
▁creative	-11655
▁serves	-11656
▁Director	-11657
▁hervorragende	-11658
▁bureauc	-11659
▁Nice	-11660
gendes	-11661
▁weshalb	-11662
▁Agrarpolitik	-11663
Thank	-11664
▁1994	-11665
▁Tim	-11666
▁protecting	-11667
▁Dazu	-11668
▁Proced	-11669
Dazu	-11670
räften	-11671
▁enthus	-11672
▁durchzuführen	-11673
lieben	-11674
▁impressive	-11675
▁Las	-11676
handelt	-11677
liefert	-11678
▁Airbus	-11679
▁Kategorie	-11680
▁verändert	-11681
▁eyes	-11682
▁couple	-11683
▁natürlichen	-11684
Res	-11685
abwe	-11686
▁treaty	-11687
bek	-11688
▁kombin	-11689
▁leaving	-11690
▁Kandidaten	-11691
▁inzwischen	-11692
▁ausgezeichnete	-11693
aj	-11694
▁amounts	-11695
▁Krie	-11696
▁zuerst	-11697
én	-11698
▁Time	-11699
astronom	-11700
gesundheit	-11701
▁Mir	-11702
▁Britain	-11703
▁removed	-11704
▁constructive	-11705
legungen	-11706
▁Original	-11707
weisung	-11708
▁officials	-11709
umping	-11710
opt	-11711
▁Mut	-11712
▁Erinner	-11713
inos	-11714
Selbst	-11715
▁MySQL	-11716
TS	-11717
▁Fer	-11718
▁Übersetzung	-11719
finanz	-11720
▁neuesten	-11721
icip	-11722
örung	-11723
▁reden	-11724
▁Direkt	-11725
itäre	-11726
▁equally	-11727
▁Note	-11728
not	-11729
▁2008,	-11730
▁criticism	-11731
▁increases	-11732
▁Dauer	-11733
▁strategies	-11734
▁amt	-11735
▁bemüht	-11736
▁Inc	-11737
▁happening	-11738
▁stattf	-11739
andal	-11740
▁temporary	-11741
▁newly	-11742
▁communications	-11743
aal	-11744
tedly	-11745
▁automatic	-11746
iva	-11747
▁Dra	-11748
▁organizations	-11749
Located	-11750
institution	-11751
Gu	-11752
▁incent	-11753
▁contributions	-11754
▁Refer	-11755
TR	-11756
▁doesn	-11757
ingesch	-11758
service	-11759
▁Einstellung	-11760
▁Lassen	-11761
oni	-11762
▁stake	-11763
▁spanischen	-11764
▁Papier	-11765
▁betreffenden	-11766
OW	-11767
▁ausgezeichneten	-11768
steuer	-11769
▁Sow	-11770
▁Grad	-11771
▁ruhigen	-11772
▁reserve	-11773
▁Veranstaltung	-11774
▁EP	-11775
looking	-11776
▁hospit	-11777
▁Ep	-11778
▁Farb	-11779
▁interessant	-11780
▁preparation	-11781
▁license	-11782
▁Franc	-11783
▁lovely	-11784
▁GNU	-11785
▁mandate	-11786
verletz	-11787
adow	-11788
päck	-11789
Nachdem	-11790
gemäß	-11791
▁laden	-11792
▁ursprünglichen	-11793
▁beträcht	-11794
▁handling	-11795
▁hit	-11796
freie	-11797
▁getr	-11798
▁verändern	-11799
ählte	-11800
▁underm	-11801
▁Temperatur	-11802
▁Verbesserungen	-11803
▁Anfragen	-11804
▁impression	-11805
▁requirement	-11806
eller	-11807
▁gelegt	-11808
einrichtungen	-11809
▁offenen	-11810
▁Ty	-11811
▁fühlen	-11812
▁remaining	-11813
▁installiert	-11814
apest	-11815
▁Warum	-11816
▁restrictions	-11817
▁healthy	-11818
▁qualifiz	-11819
▁cancel	-11820
▁awareness	-11821
▁Show	-11822
▁Überzeugung	-11823
▁cer	-11824
▁boat	-11825
▁schreiben	-11826
▁grundlegende	-11827
entions	-11828
liament	-11829
▁Wash	-11830
▁Sur	-11831
▁acquis	-11832
▁75	-11833
holders	-11834
▁richten	-11835
▁liberalisation	-11836
▁Bauern	-11837
▁contracts	-11838
▁essen	-11839
▁gene	-11840
▁Normen	-11841
▁volume	-11842
▁menschlichen	-11843
-/	-11844
'.	-11845
▁accom	-11846
▁gewalt	-11847
wachstum	-11848
▁einfachen	-11849
▁Schweden	-11850
▁älter	-11851
rd	-11852
Adresse	-11853
▁debates	-11854
grenzung	-11855
▁Vir	-11856
istry	-11857
▁issued	-11858
▁charges	-11859
▁prohib	-11860
▁Meinungs	-11861
bil	-11862
▁aufzunehmen	-11863
▁Sund	-11864
▁decis	-11865
▁16.	-11866
▁Luxembourg	-11867
▁characteristics	-11868
▁fighting	-11869
▁rapporteurs	-11870
ml	-11871
schirm	-11872
▁Küsten	-11873
▁kommer	-11874
▁remote	-11875
▁collective	-11876
▁balcony	-11877
▁Nahrungsmittel	-11878
light	-11879
▁Stahl	-11880
▁2.0	-11881
stood	-11882
Med	-11883
holen	-11884
▁sorgt	-11885
▁abroad	-11886
▁president	-11887
▁universal	-11888
▁präsentiert	-11889
▁entscheidend	-11890
▁trifft	-11891
▁musste	-11892
eler	-11893
▁mur	-11894
wirkung	-11895
▁opinions	-11896
▁Nahen	-11897
▁phen	-11898
▁Puert	-11899
▁anwes	-11900
▁prove	-11901
▁dining	-11902
reichung	-11903
▁Sov	-11904
▁detaill	-11905
▁funktionieren	-11906
▁Sens	-11907
reb	-11908
▁stimmt	-11909
▁returned	-11910
▁achten	-11911
▁inhabit	-11912
ruppen	-11913
behörde	-11914
dire	-11915
unicip	-11916
▁Kapaz	-11917
nischen	-11918
6)	-11919
▁Rem	-11920
▁Good	-11921
▁dich	-11922
▁surroundings	-11923
▁Verk	-11924
▁abol	-11925
▁fasc	-11926
märkte	-11927
ipel	-11928
▁extraordin	-11929
▁Termin	-11930
▁creates	-11931
▁resolutions	-11932
▁Wegen	-11933
▁faith	-11934
▁gezogen	-11935
rohung	-11936
▁operational	-11937
▁niedrig	-11938
▁höchsten	-11939
▁abgelehnt	-11940
▁Tagung	-11941
▁maintained	-11942
ffect	-11943
▁coher	-11944
▁vous	-11945
▁album	-11946
.."	-11947
▁sexual	-11948
▁pattern	-11949
▁suite	-11950
▁Viertel	-11951
▁beraten	-11952
angebot	-11953
▁lobby	-11954
meldung	-11955
▁depends	-11956
▁Alternative	-11957
isierungs	-11958
▁identify	-11959
▁NG	-11960
▁ignor	-11961
▁umzusetzen	-11962
▁commun	-11963
▁GDP	-11964
gänge	-11965
▁schließ	-11966
▁Report	-11967
anen	-11968
▁sla	-11969
▁Hans	-11970
td	-11971
▁künftigen	-11972
▁ausgesprochen	-11973
▁50%	-11974
Dennoch	-11975
▁Strukturen	-11976
▁starten	-11977
▁Garantie	-11978
▁cry	-11979
äumt	-11980
loyed	-11981
▁Burg	-11982
▁messages	-11983
▁organisiert	-11984
inational	-11985
▁Stabilitäts	-11986
ey	-11987
▁Übereinstimmung	-11988
▁cab	-11989
ittees	-11990
täus	-11991
▁Mall	-11992
▁Hostelsclub	-11993
▁Harmonisierung	-11994
▁breite	-11995
gut	-11996
▁Lim	-11997
▁walls	-11998
▁Zunächst	-11999
▁renovated	-12000
▁fee	-12001
▁recommendation	-12002
▁dritte	-12003
▁precise	-12004
rittens	-12005
▁volunt	-12006
▁Weiß	-12007
▁Armen	-12008
▁decorated	-12009
▁Music	-12010
▁traditions	-12011
▁gratulieren	-12012
▁UNO	-12013
▁Wähl	-12014
▁Verfahrens	-12015
▁Viele	-12016
▁Engine	-12017
▁inspir	-12018
▁classic	-12019
macht	-12020
▁riesigen	-12021
▁übernimmt	-12022
▁verschiedener	-12023
uite	-12024
zellen	-12025
gä	-12026
▁erlauben	-12027
▁Pia	-12028
▁gets	-12029
▁kurze	-12030
▁veran	-12031
material	-12032
▁verursacht	-12033
▁Bulgaria	-12034
▁Box	-12035
▁gold	-12036
▁Robert	-12037
garn	-12038
grenzen	-12039
▁bekämpfen	-12040
▁List	-12041
arma	-12042
▁Angst	-12043
▁Croatia	-12044
ateful	-12045
▁gewonnen	-12046
Restaurant	-12047
▁sin	-12048
▁schnelle	-12049
fined	-12050
lastung	-12051
▁Export	-12052
▁soweit	-12053
forschung	-12054
▁Secret	-12055
krit	-12056
▁catalog	-12057
▁ausgewogen	-12058
▁push	-12059
▁ausgeschlossen	-12060
▁gebaut	-12061
oria	-12062
▁battle	-12063
▁involve	-12064
▁Bildungs	-12065
modell	-12066
▁Festlegung	-12067
▁13.	-12068
aller	-12069
▁Town	-12070
▁Punkten	-12071
▁anstatt	-12072
aling	-12073
▁dark	-12074
deb	-12075
▁George	-12076
▁Update	-12077
▁MS	-12078
▁Pay	-12079
▁Tax	-12080
▁Govern	-12081
▁Steuern	-12082
▁appoint	-12083
▁gender	-12084
▁Ausstattung	-12085
▁Liebe	-12086
▁Arme	-12087
▁verlangt	-12088
rufen	-12089
▁Then	-12090
▁youth	-12091
▁Expl	-12092
inuier	-12093
▁conflicts	-12094
▁Krisen	-12095
“.	-12096
▁zählt	-12097
▁USD	-12098
▁sauna	-12099
center	-12100
▁Kommun	-12101
cles	-12102
▁Caf	-12103
▁irre	-12104
ighten	-12105
▁Procedure	-12106
▁facilitate	-12107
zne	-12108
▁leistungs	-12109
▁owner	-12110
▁gelöst	-12111
▁perfekt	-12112
▁properties	-12113
▁Prin	-12114
▁Konsens	-12115
▁witness	-12116
▁Beschreibung	-12117
ziplin	-12118
▁legend	-12119
▁gone	-12120
▁artist	-12121
▁regularly	-12122
▁beseit	-12123
▁schafft	-12124
ätigung	-12125
vant	-12126
werb	-12127
▁buchen	-12128
▁However	-12129
▁drawing	-12130
▁Japanese	-12131
▁Profession	-12132
▁Geschmack	-12133
▁lautet	-12134
uliert	-12135
Service	-12136
iday	-12137
▁uneingesch	-12138
▁Hohen	-12139
▁bezug	-12140
▁catch	-12141
▁anschließen	-12142
erechtigkeit	-12143
▁Ath	-12144
▁reported	-12145
▁Alp	-12146
▁Anti	-12147
▁Geräte	-12148
▁fordere	-12149
▁annehmen	-12150
▁angesehen	-12151
▁Gestaltung	-12152
▁Drittländern	-12153
▁auftreten	-12154
▁hardware	-12155
▁Zuständigkeit	-12156
▁smo	-12157
▁Geschäft	-12158
▁"„	-12159
▁mögliche	-12160
▁reserves	-12161
▁wettbewerbs	-12162
▁Ausführungen	-12163
izer	-12164
▁conducted	-12165
Third	-12166
mitten	-12167
▁aftern	-12168
▁customs	-12169
▁Vorschlägen	-12170
▁alarm	-12171
▁vacation	-12172
▁Beispiele	-12173
azier	-12174
▁Tschech	-12175
▁Krankheiten	-12176
▁Maastr	-12177
▁einzigartige	-12178
table	-12179
▁MEPs	-12180
liste	-12181
▁Behinder	-12182
▁Bucht	-12183
▁accompan	-12184
▁Executive	-12185
▁aufgefordert	-12186
cohol	-12187
diction	-12188
▁cable	-12189
▁enh	-12190
water	-12191
▁Bestellung	-12192
▁abgesch	-12193
▁transportation	-12194
ypern	-12195
acion	-12196
▁Life	-12197
▁meat	-12198
▁Planung	-12199
▁intensiv	-12200
▁Ausgangspunkt	-12201
onymous	-12202
▁parliaments	-12203
▁GU	-12204
▁Standort	-12205
▁performed	-12206
BC	-12207
▁load	-12208
▁Internets	-12209
▁consc	-12210
▁Gegend	-12211
▁hundreds	-12212
tele	-12213
▁hervorheben	-12214
▁Ware	-12215
▁erör	-12216
▁zugunsten	-12217
ährung	-12218
▁Abschnitt	-12219
▁recip	-12220
▁Reisen	-12221
▁supposed	-12222
fit	-12223
reffen	-12224
▁Farbe	-12225
igsten	-12226
würdigkeit	-12227
▁zentralen	-12228
▁BSE	-12229
▁east	-12230
decken	-12231
▁Canada	-12232
▁parents	-12233
▁sehe	-12234
▁topic	-12235
▁phenomen	-12236
uese	-12237
▁northern	-12238
▁verständ	-12239
Angesichts	-12240
mes	-12241
point	-12242
▁define	-12243
iny	-12244
läut	-12245
berge	-12246
standards	-12247
▁intensive	-12248
▁vereinbar	-12249
Vert	-12250
▁erheblich	-12251
▁somewhat	-12252
▁Aktien	-12253
▁career	-12254
▁worse	-12255
▁Balkan	-12256
▁einig	-12257
▁durchführen	-12258
▁iron	-12259
▁beabsicht	-12260
▁bekomm	-12261
essions	-12262
▁Polizei	-12263
▁Blut	-12264
▁Kroat	-12265
führte	-12266
▁metal	-12267
▁follows	-12268
39	-12269
udes	-12270
▁Sat	-12271
▁zut	-12272
▁holding	-12273
lieb	-12274
▁Award	-12275
▁Vater	-12276
▁Polish	-12277
▁verstanden	-12278
▁PR	-12279
istern	-12280
▁contrast	-12281
▁Kilometer	-12282
▁dates	-12283
▁seeing	-12284
ringerung	-12285
▁Wolf	-12286
▁avec	-12287
▁Lager	-12288
▁regulatory	-12289
▁beglückwünschen	-12290
Lin	-12291
asche	-12292
▁zuständigen	-12293
▁kurzen	-12294
orca	-12295
Klicken	-12296
▁displayed	-12297
Star	-12298
▁terrorist	-12299
▁mitten	-12300
▁abandon	-12301
▁Regime	-12302
48	-12303
▁amaz	-12304
Mill	-12305
▁präz	-12306
▁joined	-12307
▁Fähigkeiten	-12308
Dann	-12309
wald	-12310
▁Sauna	-12311
▁Monetary	-12312
Rooms	-12313
▁Marina	-12314
▁früheren	-12315
;"	-12316
▁visa	-12317
Her	-12318
▁erwähn	-12319
▁zufolge	-12320
▁collect	-12321
▁Ausstellung	-12322
 –	-12323
osis	-12324
▁Wil	-12325
▁parlament	-12326
▁nachhaltigen	-12327
▁unfor	-12328
▁SO	-12329
▁Tel	-12330
▁Umfeld	-12331
▁updated	-12332
▁interior	-12333
▁frequently	-12334
How	-12335
▁900	-12336
banken	-12337
▁Cyprus	-12338
▁zurückge	-12339
▁ultimately	-12340
stanz	-12341
andt	-12342
▁Elect	-12343
▁connections	-12344
5)	-12345
ivals	-12346
▁towns	-12347
▁Halb	-12348
▁schwed	-12349
Com	-12350
▁Ausführung	-12351
aled	-12352
▁continent	-12353
▁noted	-12354
▁faster	-12355
▁Kontext	-12356
▁islands	-12357
▁bestätigen	-12358
▁Himm	-12359
▁verbringen	-12360
uers	-12361
▁Wild	-12362
▁ought	-12363
▁answers	-12364
▁techniques	-12365
▁Late	-12366
schiedet	-12367
▁minority	-12368
▁ehrgeiz	-12369
▁label	-12370
ältigen	-12371
▁sodass	-12372
▁kontinuier	-12373
▁father	-12374
▁ungefähr	-12375
▁Frü	-12376
▁Arbeitsplätzen	-12377
col	-12378
▁deals	-12379
▁verabschiedet	-12380
▁Straß	-12381
CHT	-12382
▁stylish	-12383
▁Hilfs	-12384
▁Indones	-12385
▁Zentralbank	-12386
unning	-12387
kur	-12388
lared	-12389
▁Urspr	-12390
beauftrag	-12391
▁bud	-12392
▁Regen	-12393
▁Gleichgewicht	-12394
▁Gentoo	-12395
▁notwendige	-12396
▁unent	-12397
▁derart	-12398
organ	-12399
▁organized	-12400
▁Brasil	-12401
schäd	-12402
wechs	-12403
ef	-12404
igend	-12405
iessen	-12406
▁worry	-12407
iera	-12408
▁Temp	-12409
▁mother	-12410
▁emergency	-12411
care	-12412
▁aktuell	-12413
AF	-12414
Sm	-12415
▁trib	-12416
lässlich	-12417
▁settings	-12418
ifies	-12419
▁Geheim	-12420
aine	-12421
▁Übereinkommen	-12422
.-	-12423
▁Washington	-12424
▁demanding	-12425
orter	-12426
▁Prop	-12427
Mod	-12428
bart	-12429
kreis	-12430
minuten	-12431
▁Problems	-12432
▁Schatten	-12433
▁Eis	-12434
▁ausgestatte	-12435
arr	-12436
tein	-12437
▁Nap	-12438
passen	-12439
zeichnis	-12440
Ja	-12441
▁Aqu	-12442
▁Cook	-12443
Despite	-12444
ößen	-12445
▁drop	-12446
iftung	-12447
▁Automobil	-12448
▁react	-12449
▁Einheit	-12450
▁2-	-12451
▁Verd	-12452
▁Dusche	-12453
▁Plenum	-12454
▁Rumänien	-12455
▁driver	-12456
▁gewissen	-12457
fuhr	-12458
Ind	-12459
▁"“	-12460
▁ethnic	-12461
ausend	-12462
▁grateful	-12463
▁Inf	-12464
orama	-12465
▁derartige	-12466
minute	-12467
▁Sonne	-12468
related	-12469
▁Ausgabe	-12470
▁anspruchs	-12471
64	-12472
▁Year	-12473
▁hostel	-12474
▁behavi	-12475
▁Erholung	-12476
▁bezahlen	-12477
▁öffentlich	-12478
ties	-12479
wing	-12480
▁KMU	-12481
▁electricity	-12482
usted	-12483
▁ermut	-12484
▁interessante	-12485
Leider	-12486
▁Block	-12487
▁invite	-12488
▁37	-12489
otive	-12490
▁drug	-12491
▁migration	-12492
well	-12493
▁divided	-12494
▁PRO	-12495
▁heat	-12496
▁Optim	-12497
▁Arbeitsplatz	-12498
▁Mold	-12499
▁castle	-12500
▁produziert	-12501
▁entschlossen	-12502
▁Buchung	-12503
▁heritage	-12504
▁Agricult	-12505
▁beschränkt	-12506
nor	-12507
▁Vermögen	-12508
▁Prinzipien	-12509
▁Prüf	-12510
▁Gewicht	-12511
▁delighted	-12512
▁Websites	-12513
ete	-12514
▁seat	-12515
▁tail	-12516
▁visual	-12517
▁expansion	-12518
▁entwickelten	-12519
▁Redner	-12520
▁statistics	-12521
ibliothek	-12522
▁producing	-12523
▁multinational	-12524
99	-12525
üler	-12526
▁verhindert	-12527
züge	-12528
▁courage	-12529
▁quarter	-12530
▁windows	-12531
▁Verringerung	-12532
iox	-12533
▁arrive	-12534
▁vorange	-12535
▁ster	-12536
▁verleihen	-12537
Over	-12538
cean	-12539
▁Empf	-12540
▁hängt	-12541
▁Struct	-12542
estr	-12543
▁!"	-12544
▁Jer	-12545
▁Vorbe	-12546
▁Bek	-12547
▁Speicher	-12548
▁tourists	-12549
▁welfare	-12550
ikaner	-12551
▁widely	-12552
▁magnific	-12553
▁österreich	-12554
▁entrance	-12555
▁unmöglich	-12556
▁relaxation	-12557
▁wines	-12558
▁Partnern	-12559
▁ausgezeichnet	-12560
▁channels	-12561
▁ausgesetzt	-12562
▁Einbeziehung	-12563
schm	-12564
stud	-12565
tendlich	-12566
▁Deutschen	-12567
▁Offen	-12568
▁suites	-12569
▁geprüft	-12570
▁freiwill	-12571
▁investors	-12572
▁Trag	-12573
▁entdeck	-12574
▁serviert	-12575
gemeinschaft	-12576
▁münd	-12577
▁involves	-12578
▁geä	-12579
▁Anbieter	-12580
▁pollution	-12581
▁Viet	-12582
▁visible	-12583
▁Freiheiten	-12584
▁individuell	-12585
▁protocol	-12586
oden	-12587
▁Earth	-12588
▁jetz	-12589
▁Ersatz	-12590
▁Anwendungs	-12591
uminium	-12592
Jetzt	-12593
▁library	-12594
ieben	-12595
▁valley	-12596
▁locations	-12597
▁refr	-12598
▁aufnehmen	-12599
günst	-12600
▁proof	-12601
▁string	-12602
▁protest	-12603
▁Protection	-12604
icans	-12605
arat	-12606
▁Kohäsion	-12607
▁direkten	-12608
▁Beziehung	-12609
bro	-12610
örd	-12611
▁Word	-12612
sidiar	-12613
▁Ja	-12614
▁geboten	-12615
▁bottom	-12616
▁entsteht	-12617
▁Today	-12618
erkennen	-12619
▁declaration	-12620
▁welchem	-12621
▁contacts	-12622
▁subsidies	-12623
▁Zentr	-12624
▁starts	-12625
▁2007,	-12626
kontrolle	-12627
▁Schlafzimmer	-12628
▁Funds	-12629
▁Congress	-12630
▁maintaining	-12631
gor	-12632
▁kurzfrist	-12633
▁inhabitants	-12634
▁Taiwan	-12635
imedia	-12636
▁Faktoren	-12637
▁verehrte	-12638
etzten	-12639
▁Since	-12640
izza	-12641
▁10%	-12642
▁symp	-12643
▁ticket	-12644
▁kontakt	-12645
▁bestimmen	-12646
▁cash	-12647
General	-12648
▁Führer	-12649
▁interv	-12650
▁pieces	-12651
▁flights	-12652
▁explore	-12653
▁abgestimmt	-12654
▁exciting	-12655
▁visiting	-12656
▁oral	-12657
▁presents	-12658
▁erreichbar	-12659
▁supplement	-12660
▁Anton	-12661
▁Audio	-12662
▁passiert	-12663
▁..	-12664
iented	-12665
▁geboren	-12666
Cont	-12667
Meiner	-12668
ergeb	-12669
iga	-12670
▁sac	-12671
▁verschw	-12672
▁kämpfen	-12673
▁afternoon	-12674
hörigen	-12675
▁proved	-12676
ätigkeiten	-12677
▁indicated	-12678
▁beeindruck	-12679
▁Är	-12680
▁wollten	-12681
▁staatlichen	-12682
▁collaboration	-12683
▁Due	-12684
isses	-12685
▁understood	-12686
onien	-12687
▁focused	-12688
UNG	-12689
kohol	-12690
▁antw	-12691
▁Krimin	-12692
▁bilateral	-12693
▁stars	-12694
▁tie	-12695
▁Rent	-12696
▁Haftung	-12697
▁corresponding	-12698
▁stored	-12699
▁Vorschlags	-12700
ibar	-12701
rett	-12702
▁Einige	-12703
▁careful	-12704
▁HD	-12705
▁Edition	-12706
▁showing	-12707
▁demonstrate	-12708
▁visited	-12709
▁demonstrated	-12710
▁signs	-12711
icherungs	-12712
▁Portuguese	-12713
pg	-12714
icer	-12715
▁ball	-12716
▁mitge	-12717
ruh	-12718
ochter	-12719
▁geltenden	-12720
Zudem	-12721
▁Pact	-12722
▁gardens	-12723
▁Verbot	-12724
▁Camping	-12725
▁cosy	-12726
▁Framework	-12727
cons	-12728
▁Nic	-12729
agers	-12730
level	-12731
maschine	-12732
▁Geschäfte	-12733
▁newsp	-12734
▁2010,	-12735
▁department	-12736
▁voc	-12737
▁spoken	-12738
ounter	-12739
▁Gerichte	-12740
▁Gründung	-12741
▁vollständige	-12742
▁AP	-12743
Other	-12744
national	-12745
▁drivers	-12746
▁gezwungen	-12747
▁erleichtern	-12748
160	-12749
Ent	-12750
life	-12751
▁Hof	-12752
▁geräum	-12753
▁Thomas	-12754
▁sorgfältig	-12755
▁1992	-12756
▁legt	-12757
▁tatsäch	-12758
▁hervorge	-12759
▁Förder	-12760
▁planet	-12761
▁definiert	-12762
▁Bemerkungen	-12763
werks	-12764
▁king	-12765
▁Schuld	-12766
▁Europol	-12767
▁DE	-12768
mäßigen	-12769
▁ferner	-12770
▁depending	-12771
▁mostly	-12772
▁Wünsche	-12773
▁20%	-12774
▁wann	-12775
34	-12776
▁awa	-12777
▁trop	-12778
aching	-12779
ausschuß	-12780
häuser	-12781
▁Kas	-12782
scheidet	-12783
▁accident	-12784
rical	-12785
vertre	-12786
▁stopp	-12787
▁ausgeführt	-12788
oub	-12789
ées	-12790
▁rub	-12791
▁begrüßt	-12792
▁westlichen	-12793
Gem	-12794
▁Budapest	-12795
▁).	-12796
▁input	-12797
▁Baltic	-12798
▁cutting	-12799
New	-12800
▁fitness	-12801
▁Projekten	-12802
▁ven	-12803
▁preis	-12804
▁Feuer	-12805
▁Kräfte	-12806
▁Gesetzes	-12807
▁Infl	-12808
▁Semin	-12809
aux	-12810
▁commission	-12811
▁accompanied	-12812
▁Kreuz	-12813
▁höheren	-12814
▁hinzufügen	-12815
▁nine	-12816
▁Prague	-12817
▁lebens	-12818
▁Network	-12819
▁Beiträge	-12820
LT	-12821
▁14.	-12822
etzte	-12823
Rat	-12824
aya	-12825
▁Brenn	-12826
▁worksh	-12827
ography	-12828
▁Kompetenz	-12829
▁Copenhagen	-12830
weile	-12831
mäßige	-12832
▁ordnungs	-12833
▁kostet	-12834
▁categories	-12835
▁Max	-12836
NS	-12837
▁Ren	-12838
ulf	-12839
undert	-12840
arische	-12841
▁facility	-12842
rak	-12843
▁personnel	-12844
▁vorlegen	-12845
zent	-12846
liers	-12847
langen	-12848
ughter	-12849
Pe	-12850
▁Mexico	-12851
War	-12852
▁Partners	-12853
▁finished	-12854
▁inflation	-12855
▁Zypern	-12856
▁Vereinbarungen	-12857
▁fab	-12858
Fre	-12859
▁Ltd	-12860
▁Ziffer	-12861
▁echten	-12862
▁theme	-12863
▁restruct	-12864
▁solange	-12865
▁distingu	-12866
▁Training	-12867
▁Gemeinde	-12868
klass	-12869
▁settlement	-12870
“."	-12871
▁Kat	-12872
▁privat	-12873
produkte	-12874
▁jegliche	-12875
▁beschleun	-12876
▁copyright	-12877
▁chinesischen	-12878
ammeln	-12879
schluß	-12880
▁concluded	-12881
▁verringern	-12882
▁gespeichert	-12883
▁spectacular	-12884
▁spezifischen	-12885
Wor	-12886
▁Slovak	-12887
▁Fac	-12888
▁didn	-12889
▁Fleisch	-12890
ulin	-12891
▁sad	-12892
▁IV	-12893
ulen	-12894
▁nahezu	-12895
▁Werbung	-12896
▁bemühen	-12897
▁angemessene	-12898
▁Legal	-12899
▁controlled	-12900
▁individuelle	-12901
▁effectiveness	-12902
Ihre	-12903
▁ongoing	-12904
▁Mode	-12905
▁prosper	-12906
rent	-12907
pping	-12908
▁Gesellschaften	-12909
▁Subsidiar	-12910
▁era	-12911
▁Spazier	-12912
▁erinnert	-12913
▁OR	-12914
geräte	-12915
▁explicit	-12916
▁Maastricht	-12917
Gleichzeitig	-12918
holm	-12919
▁Asien	-12920
pet	-12921
ups	-12922
▁Gipf	-12923
▁Verbindungen	-12924
▁Tarif	-12925
Inter	-12926
hrten	-12927
▁Orte	-12928
▁committees	-12929
igu	-12930
ativer	-12931
▁Therm	-12932
▁dream	-12933
▁carbon	-12934
▁lounge	-12935
Sol	-12936
▁breit	-12937
Parliament	-12938
ifest	-12939
▁termin	-12940
▁Use	-12941
▁Even	-12942
▁fertig	-12943
mens	-12944
▁nachzu	-12945
▁bilater	-12946
teilungen	-12947
▁sah	-12948
▁tar	-12949
athol	-12950
iforn	-12951
▁Balkon	-12952
▁heutige	-12953
▁Einwohner	-12954
oot	-12955
▁replaced	-12956
▁Außenpolitik	-12957
▁flag	-12958
▁plenty	-12959
▁raw	-12960
▁smooth	-12961
▁resistance	-12962
▁Schweizer	-12963
▁Ski	-12964
▁heating	-12965
▁printing	-12966
ulpt	-12967
▁Games	-12968
▁palästinens	-12969
▁documentation	-12970
▁Boot	-12971
arters	-12972
usehen	-12973
Strategie	-12974
inks	-12975
ás	-12976
hips	-12977
▁übrigens	-12978
cepts	-12979
▁Franz	-12980
▁autonom	-12981
▁citizen	-12982
ameters	-12983
▁nights	-12984
techn	-12985
▁Kamera	-12986
▁occasions	-12987
pap	-12988
▁Luf	-12989
▁bestehende	-12990
▁1970	-12991
iences	-12992
▁rational	-12993
▁Identität	-12994
IDS	-12995
bsp	-12996
▁überras	-12997
▁minorities	-12998
Thus	-12999
▁Naz	-13000
▁Betr	-13001
▁confer	-13002
fragt	-13003
3-	-13004
▁films	-13005
▁foundation	-13006
▁educational	-13007
rep	-13008
▁Konzer	-13009
▁Nos	-13010
▁firms	-13011
▁Vorgehen	-13012
▁Mobilität	-13013
▁trafficking	-13014
chnung	-13015
▁Israeli	-13016
▁awarded	-13017
nitten	-13018
▁behaviour	-13019
▁definitely	-13020
usse	-13021
▁Aktual	-13022
▁Palästinens	-13023
▁Bö	-13024
▁Author	-13025
ifizieren	-13026
wege	-13027
trans	-13028
herr	-13029
teils	-13030
▁Webseiten	-13031
▁Format	-13032
▁crimes	-13033
▁frame	-13034
ignet	-13035
sieht	-13036
▁tickets	-13037
▁38	-13038
▁corruption	-13039
▁Investitions	-13040
▁ER	-13041
▁streng	-13042
▁passenger	-13043
▁constitution	-13044
▁SMEs	-13045
schaffung	-13046
beziehungen	-13047
▁immigrants	-13048
▁tackle	-13049
klusive	-13050
▁letztlich	-13051
liegt	-13052
▁Ungarn	-13053
urlaub	-13054
▁assume	-13055
▁eingere	-13056
▁verdient	-13057
▁rapidly	-13058
▁speaker	-13059
kter	-13060
gerufen	-13061
▁Li	-13062
▁Milch	-13063
nerg	-13064
▁usual	-13065
▁assets	-13066
▁verbind	-13067
▁recorded	-13068
▁Kommunikations	-13069
▁Other	-13070
▁grundsätzlich	-13071
▁Sad	-13072
▁Bars	-13073
▁behalten	-13074
▁Hostel	-13075
▁Gepäck	-13076
bekämpfung	-13077
▁berechtigt	-13078
▁AD	-13079
▁2012	-13080
▁cycle	-13081
▁overcome	-13082
▁Friday	-13083
▁gegebenen	-13084
▁fem	-13085
demark	-13086
▁Verpack	-13087
mung	-13088
▁spiel	-13089
▁Gespräche	-13090
▁Freit	-13091
▁plen	-13092
▁Under	-13093
jan	-13094
▁neun	-13095
hängen	-13096
▁prest	-13097
El	-13098
▁WC	-13099
▁Videos	-13100
ollowing	-13101
▁adopting	-13102
▁competent	-13103
▁Aller	-13104
▁respected	-13105
▁arm	-13106
Stand	-13107
▁Zwecke	-13108
▁Chancen	-13109
▁Wei	-13110
immungs	-13111
▁Symbol	-13112
BM	-13113
▁woman	-13114
▁oblige	-13115
▁UR	-13116
emble	-13117
▁Bord	-13118
▁imposed	-13119
▁compatible	-13120
▁BIP	-13121
▁erweiter	-13122
▁TO	-13123
▁iP	-13124
▁Anschluss	-13125
▁Ret	-13126
▁Fair	-13127
▁verurteilt	-13128
▁Abhäng	-13129
▁Verbreitung	-13130
▁Road	-13131
▁Mikro	-13132
▁mittler	-13133
▁discre	-13134
▁desired	-13135
▁configuration	-13136
▁thr	-13137
▁gewährt	-13138
▁forg	-13139
▁Sorgen	-13140
kommunik	-13141
▁centuries	-13142
▁Mangel	-13143
▁Provinz	-13144
agg	-13145
vertrag	-13146
▁Zielen	-13147
▁Trotz	-13148
▁jenen	-13149
▁höchst	-13150
▁Marktes	-13151
Its	-13152
▁nunmehr	-13153
▁einfacher	-13154
▁uncertain	-13155
▁verbinden	-13156
▁rechtlichen	-13157
▁einheitlichen	-13158
ultural	-13159
▁scheme	-13160
▁beschäftigen	-13161
▁Food	-13162
▁vorzu	-13163
▁routes	-13164
▁virtual	-13165
DER	-13166
▁Mem	-13167
▁proven	-13168
▁organisieren	-13169
▁6,	-13170
rates	-13171
▁Wart	-13172
▁Zert	-13173
▁dein	-13174
▁replace	-13175
▁containing	-13176
▁manufacturer	-13177
▁traditionelle	-13178
▁Politiken	-13179
▁transactions	-13180
▁facts	-13181
▁profile	-13182
Entw	-13183
ardo	-13184
bleme	-13185
▁seas	-13186
ammt	-13187
technolog	-13188
▁Beam	-13189
▁sending	-13190
▁gespielt	-13191
Hin	-13192
oche	-13193
▁Dynam	-13194
▁ersetzt	-13195
▁destruction	-13196
▁Energien	-13197
▁appointed	-13198
▁subsidiarity	-13199
▁Gefahren	-13200
itra	-13201
▁Nat	-13202
Software	-13203
▁Weitere	-13204
▁beliebt	-13205
▁Shop	-13206
betrieb	-13207
Sim	-13208
▁enjoyed	-13209
▁AV	-13210
systeme	-13211
▁Page	-13212
▁arrived	-13213
▁judicial	-13214
▁sugar	-13215
▁Argument	-13216
▁israel	-13217
▁letzter	-13218
Comp	-13219
▁ice	-13220
useums	-13221
▁correctly	-13222
ockt	-13223
durch	-13224
▁Sony	-13225
▁Preisen	-13226
▁maritime	-13227
▁Quark	-13228
▁Brand	-13229
▁weekend	-13230
▁possibly	-13231
▁Rezeption	-13232
▁milk	-13233
▁popul	-13234
▁credibility	-13235
▁functioning	-13236
▁transatlant	-13237
freien	-13238
glichkeit	-13239
▁stronger	-13240
▁vorstellen	-13241
comp	-13242
▁ped	-13243
▁sud	-13244
▁Medik	-13245
bach	-13246
BA	-13247
▁Anre	-13248
▁beruht	-13249
▁gallery	-13250
eta	-13251
▁180	-13252
örter	-13253
▁Denk	-13254
▁Ferr	-13255
▁2006,	-13256
▁Liter	-13257
▁ruhig	-13258
▁rul	-13259
▁forum	-13260
▁vorhandenen	-13261
▁During	-13262
▁partly	-13263
▁Respekt	-13264
▁erfolgreiche	-13265
▁conditioning	-13266
EE	-13267
llo	-13268
zneimit	-13269
partment	-13270
▁minister	-13271
▁James	-13272
▁entscheidende	-13273
▁professionals	-13274
▁shares	-13275
▁Turn	-13276
▁labe	-13277
lications	-13278
▁gestaltet	-13279
raf	-13280
▁Niger	-13281
▁Serie	-13282
while	-13283
▁Vietnam	-13284
▁luxurious	-13285
▁33	-13286
▁Zudem	-13287
▁declared	-13288
▁Dev	-13289
▁Verlust	-13290
▁Besorgnis	-13291
üne	-13292
▁Il	-13293
▁theoret	-13294
nex	-13295
agent	-13296
▁coal	-13297
▁emerging	-13298
▁installieren	-13299
dauer	-13300
▁fuer	-13301
▁courts	-13302
▁channel	-13303
▁satisfied	-13304
-1	-13305
▁Dipl	-13306
▁bekräft	-13307
▁Question	-13308
zneimittel	-13309
▁Browser	-13310
▁Komponenten	-13311
▁außerordentlich	-13312
▁individuellen	-13313
ulich	-13314
town	-13315
ührt	-13316
yside	-13317
▁discip	-13318
▁dürfte	-13319
▁alcohol	-13320
▁Northern	-13321
NA	-13322
wertet	-13323
viertel	-13324
▁Wesent	-13325
etheless	-13326
▁manager	-13327
Pal	-13328
ernel	-13329
▁Vict	-13330
▁erläut	-13331
▁unverzüglich	-13332
▁globalisation	-13333
ained	-13334
▁horizont	-13335
▁stehenden	-13336
▁lots	-13337
▁Opposition	-13338
▁Moz	-13339
ivate	-13340
▁Indian	-13341
▁licens	-13342
▁dign	-13343
▁certific	-13344
▁consent	-13345
55	-13346
68	-13347
▁Luc	-13348
gelöst	-13349
▁Legisl	-13350
▁Abkommens	-13351
▁Bedien	-13352
▁diagn	-13353
▁flood	-13354
OC	-13355
▁adults	-13356
▁taxation	-13357
▁verwirk	-13358
▁sit	-13359
ivalent	-13360
▁Disc	-13361
▁Rechnungshof	-13362
▁Freunden	-13363
▁Rechtsstaat	-13364
iki	-13365
lehnung	-13366
▁Städten	-13367
▁Zür	-13368
waffen	-13369
▁klaren	-13370
▁britische	-13371
▁constitutional	-13372
gess	-13373
Europa	-13374
▁Malta	-13375
▁Werke	-13376
▁Vorstellung	-13377
▁aussprechen	-13378
▁jener	-13379
▁Ausmaß	-13380
▁rental	-13381
▁reduzieren	-13382
▁died	-13383
▁magnificent	-13384
▁inj	-13385
▁Gaza	-13386
▁miles	-13387
▁Werkzeug	-13388
CP	-13389
▁attract	-13390
▁Fa	-13391
▁Defiz	-13392
▁fehlt	-13393
▁Belgium	-13394
▁Vice	-13395
▁rechtzeit	-13396
IX	-13397
▁suppliers	-13398
▁verstärken	-13399
▁Betrag	-13400
▁unfair	-13401
▁Fernseh	-13402
▁addresses	-13403
▁Ib	-13404
▁sen	-13405
▁distributed	-13406
rain	-13407
ündete	-13408
▁EZ	-13409
ographic	-13410
uben	-13411
ziele	-13412
▁brut	-13413
unications	-13414
▁considering	-13415
▁exit	-13416
▁Kapitel	-13417
She	-13418
marquis	-13419
▁Michel	-13420
▁slightly	-13421
cho	-13422
▁angewand	-13423
▁encouraging	-13424
WF	-13425
orie	-13426
▁division	-13427
▁ursprünglich	-13428
▁Plug	-13429
▁hundred	-13430
▁Sektoren	-13431
▁Untersuchungen	-13432
Phone	-13433
gested	-13434
▁Verlauf	-13435
uchs	-13436
▁Putin	-13437
▁kamen	-13438
▁Erzeugnisse	-13439
rown	-13440
ville	-13441
▁Chair	-13442
▁Versand	-13443
▁schlägt	-13444
▁eastern	-13445
Go	-13446
▁Salzburg	-13447
▁bestimmter	-13448
▁identified	-13449
▁Sche	-13450
▁Tsch	-13451
▁Sozialdem	-13452
▁angegebenen	-13453
mir	-13454
athem	-13455
▁Adobe	-13456
▁suspend	-13457
▁proposes	-13458
Commission	-13459
▁preparing	-13460
das	-13461
uster	-13462
udi	-13463
zut	-13464
▁Ku	-13465
▁Som	-13466
ildren	-13467
▁Detail	-13468
▁Kriegs	-13469
▁Mitarbeitern	-13470
bi	-13471
▁Sar	-13472
ieller	-13473
behandlung	-13474
▁wiederholen	-13475
▁Spaß	-13476
▁Hungary	-13477
▁Wohlstand	-13478
acks	-13479
▁surf	-13480
dienste	-13481
▁Urheber	-13482
▁Gericht	-13483
▁Betracht	-13484
dro	-13485
▁vari	-13486
▁poten	-13487
▁Bemerkung	-13488
▁Fü	-13489
▁USS	-13490
▁1993	-13491
▁plays	-13492
▁luxuri	-13493
▁Dal	-13494
estra	-13495
▁Erst	-13496
▁Anmer	-13497
▁formed	-13498
▁Balkans	-13499
▁Optionen	-13500
▁verbesser	-13501
ROM	-13502
▁Konsult	-13503
▁inclusion	-13504
▁verkaufen	-13505
▁eingereicht	-13506
▁extraordinary	-13507
▁großzüg	-13508
▁plenary	-13509
wirkt	-13510
▁Structural	-13511
▁Genehmigung	-13512
▁Auge	-13513
Thanks	-13514
prene	-13515
regeln	-13516
▁providers	-13517
▁substance	-13518
▁betreffend	-13519
COM	-13520
▁Männern	-13521
ueller	-13522
▁Meine	-13523
▁Soviet	-13524
IK	-13525
▁(1	-13526
▁Kaffee	-13527
▁Thurs	-13528
▁deposit	-13529
▁Donner	-13530
▁resolved	-13531
47	-13532
wählen	-13533
zentren	-13534
▁Bereitstellung	-13535
anw	-13536
▁army	-13537
▁"19	-13538
Dr	-13539
▁unw	-13540
▁bright	-13541
ju	-13542
▁2000,	-13543
▁semin	-13544
▁Ker	-13545
amo	-13546
▁Vern	-13547
informationen	-13548
zonen	-13549
▁Kais	-13550
▁russischen	-13551
idet	-13552
▁äußern	-13553
▁suit	-13554
▁Tochter	-13555
▁2013	-13556
aun	-13557
▁mac	-13558
▁Programmen	-13559
lls	-13560
▁Charta	-13561
▁appeared	-13562
▁Kontrollen	-13563
▁erhielt	-13564
▁Kopenhagen	-13565
otic	-13566
▁Begr	-13567
kehrt	-13568
▁Desk	-13569
▁amen	-13570
ubl	-13571
werken	-13572
ancing	-13573
▁Satz	-13574
▁Email	-13575
▁ensures	-13576
▁sensible	-13577
▁erfolgreichen	-13578
▁arab	-13579
▁Reduz	-13580
gener	-13581
▁Seine	-13582
▁honest	-13583
▁vorbereitet	-13584
▁vieles	-13585
ziellen	-13586
unger	-13587
▁duties	-13588
▁empfangen	-13589
▁vermitteln	-13590
programme	-13591
▁everyday	-13592
erts	-13593
▁stil	-13594
▁thousand	-13595
▁erhebliche	-13596
▁Az	-13597
ianz	-13598
▁Bere	-13599
schefs	-13600
strafe	-13601
▁domain	-13602
▁Alpen	-13603
▁enhance	-13604
▁nahm	-13605
▁actively	-13606
▁AKP	-13607
▁Klar	-13608
gänger	-13609
▁artistic	-13610
▁beigetragen	-13611
TM	-13612
▁McC	-13613
▁Bang	-13614
▁nutz	-13615
▁Güter	-13616
▁roads	-13617
vi	-13618
ademy	-13619
iegelt	-13620
▁functional	-13621
▁sor	-13622
▁Autobahn	-13623
site	-13624
▁concepts	-13625
▁eventually	-13626
ami	-13627
▁Ganz	-13628
▁Assembly	-13629
▁zurückzu	-13630
dorf	-13631
▁700	-13632
istent	-13633
▁Rechtsgrundlage	-13634
bereiten	-13635
irls	-13636
ökonom	-13637
▁Puerto	-13638
ingly	-13639
▁Valley	-13640
▁component	-13641
▁elsewhere	-13642
ented	-13643
▁solely	-13644
▁musical	-13645
▁partial	-13646
▁(2	-13647
▁assure	-13648
▁Ill	-13649
▁subjects	-13650
▁Pot	-13651
▁theory	-13652
▁Exchange	-13653
▁decisive	-13654
▁VAT	-13655
stellungs	-13656
▁proposing	-13657
▁auseinander	-13658
▁FA	-13659
▁Mrd	-13660
▁index	-13661
▁western	-13662
idad	-13663
itim	-13664
▁tea	-13665
▁eingehalten	-13666
▁Single	-13667
▁absence	-13668
▁AM	-13669
erin	-13670
▁toba	-13671
▁großem	-13672
▁Alexander	-13673
32	-13674
asion	-13675
obel	-13676
▁spoke	-13677
▁Schulen	-13678
icing	-13679
▁deter	-13680
▁Access	-13681
▁beteiligen	-13682
▁Wetter	-13683
▁Kongress	-13684
▁updates	-13685
▁deleg	-13686
steigen	-13687
▁ou	-13688
▁Lieferung	-13689
▁authentic	-13690
▁Project	-13691
oom	-13692
lings	-13693
▁Belast	-13694
▁Beweg	-13695
▁Hamas	-13696
▁boost	-13697
▁drinks	-13698
▁fourth	-13699
▁Very	-13700
▁vary	-13701
▁euros	-13702
▁strategischen	-13703
▁deficit	-13704
▁Philosoph	-13705
▁Gegenstand	-13706
▁nevertheless	-13707
ommerce	-13708
▁anwesend	-13709
▁applying	-13710
▁Krankheit	-13711
▁intelligent	-13712
▁View	-13713
▁carrying	-13714
edy	-13715
▁della	-13716
▁elektronischen	-13717
”.	-13718
▁Client	-13719
▁Bedrohung	-13720
▁Konstru	-13721
▁supplies	-13722
▁vulnerable	-13723
▁Schluß	-13724
▁abziel	-13725
▁Parkplatz	-13726
▁SAP	-13727
ässig	-13728
▁Sudan	-13729
▁countryside	-13730
▁wunderschönen	-13731
uggage	-13732
▁verantwortungs	-13733
menade	-13734
▁langsam	-13735
▁afr	-13736
▁amerikanische	-13737
Sehr	-13738
▁compos	-13739
athedral	-13740
economic	-13741
▁legitimate	-13742
37	-13743
izepräsident	-13744
parte	-13745
▁Rule	-13746
▁lokale	-13747
▁stren	-13748
▁Stimmen	-13749
chst	-13750
▁ships	-13751
▁HTML	-13752
oliday	-13753
ausschau	-13754
▁emotion	-13755
▁verboten	-13756
▁Nachricht	-13757
▁Canon	-13758
▁stolz	-13759
▁Sunday	-13760
äg	-13761
▁Plane	-13762
▁interpretation	-13763
38	-13764
TH	-13765
rock	-13766
▁Hen	-13767
▁Satur	-13768
▁decre	-13769
▁gekenn	-13770
▁beobachten	-13771
▁BMW	-13772
▁wrote	-13773
▁genannte	-13774
▁university	-13775
anne	-13776
▁Staates	-13777
▁bedauer	-13778
▁bislang	-13779
▁wechsel	-13780
▁Mas	-13781
▁Welche	-13782
lösungen	-13783
▁lessons	-13784
▁Erstellung	-13785
▁Bug	-13786
▁einzigartigen	-13787
endo	-13788
▁komme	-13789
▁suggestions	-13790
ui	-13791
▁Sicherung	-13792
▁ausgerichtet	-13793
▁excessive	-13794
▁Vene	-13795
Thirdly	-13796
▁connect	-13797
▁warn	-13798
▁verwand	-13799
endar	-13800
räumen	-13801
▁unvergess	-13802
▁ing	-13803
▁susp	-13804
▁handle	-13805
▁vorrang	-13806
▁shipping	-13807
▁generated	-13808
pft	-13809
▁Roll	-13810
gehens	-13811
▁advoc	-13812
▁villages	-13813
▁Gewährleistung	-13814
deckt	-13815
▁entscheidender	-13816
läuft	-13817
▁toile	-13818
▁WLAN	-13819
▁packaging	-13820
▁anbel	-13821
▁Newsletter	-13822
▁integriert	-13823
gebiete	-13824
▁GB	-13825
igert	-13826
▁impose	-13827
▁Fundamental	-13828
dh	-13829
ieden	-13830
▁gearbeitet	-13831
▁description	-13832
orse	-13833
▁tobacco	-13834
bereichen	-13835
urteilung	-13836
▁voluntary	-13837
EX	-13838
aue	-13839
▁abuse	-13840
▁Kab	-13841
▁Traum	-13842
▁aktivieren	-13843
▁acknowledge	-13844
▁defect	-13845
▁preced	-13846
▁greatly	-13847
▁solches	-13848
▁Konsequenzen	-13849
Men	-13850
▁Kirk	-13851
▁Glaubwürdigkeit	-13852
▁Vel	-13853
▁hyp	-13854
▁Works	-13855
▁Gang	-13856
▁Zuge	-13857
äusern	-13858
▁shock	-13859
▁topics	-13860
ila	-13861
▁7,	-13862
▁Zusch	-13863
▁kleines	-13864
▁philosophy	-13865
llers	-13866
▁erzeugt	-13867
▁unforget	-13868
▁anbelangt	-13869
▁französische	-13870
Vielen	-13871
leiter	-13872
▁lit	-13873
▁Sohn	-13874
▁director	-13875
▁Educ	-13876
▁Individ	-13877
▁uniform	-13878
ubs	-13879
▁verbindet	-13880
▁Ram	-13881
▁finish	-13882
▁gained	-13883
▁exports	-13884
95	-13885
onic	-13886
▁Objekt	-13887
▁schicken	-13888
▁bereitgestellt	-13889
▁Bis	-13890
▁Both	-13891
▁liked	-13892
▁Übersetz	-13893
cision	-13894
▁liefert	-13895
▁verkauft	-13896
asbourg	-13897
▁Castle	-13898
▁sozialer	-13899
▁Ansichten	-13900
▁zuständig	-13901
▁ökonom	-13902
▁lists	-13903
▁Konkurr	-13904
hältnisse	-13905
gyp	-13906
ultane	-13907
▁verwe	-13908
▁Thursday	-13909
ipfel	-13910
ituated	-13911
▁übersch	-13912
▁Take	-13913
▁Budgets	-13914
▁inklusive	-13915
ierender	-13916
▁Francis	-13917
▁Überlegungen	-13918
▁Beschlüsse	-13919
▁Amt	-13920
▁narrow	-13921
▁Eigentum	-13922
▁konfront	-13923
▁desk	-13924
▁Dafür	-13925
▁Empfang	-13926
xy	-13927
▁Rena	-13928
unge	-13929
▁Leon	-13930
attung	-13931
▁Persön	-13932
USS	-13933
tech	-13934
▁leichter	-13935
▁regarded	-13936
▁Verletzung	-13937
▁beantworten	-13938
tung	-13939
prozess	-13940
▁wiederholt	-13941
Then	-13942
▁song	-13943
utation	-13944
▁periods	-13945
werben	-13946
▁Erstens	-13947
▁receiving	-13948
▁Investment	-13949
▁satisfaction	-13950
▁31.	-13951
▁Blue	-13952
▁pursue	-13953
▁weist	-13954
▁teams	-13955
▁insist	-13956
▁departure	-13957
▁mittleren	-13958
▁Amendments	-13959
iets	-13960
▁voranz	-13961
▁personen	-13962
▁ACP	-13963
mpt	-13964
bedarf	-13965
▁housing	-13966
▁comparison	-13967
▁difficulty	-13968
▁offiziellen	-13969
▁Übergangs	-13970
▁suggested	-13971
▁stammen	-13972
folgung	-13973
▁Geträn	-13974
▁geziel	-13975
▁supplier	-13976
▁verteidigen	-13977
chester	-13978
ärkt	-13979
▁erz	-13980
ktors	-13981
oration	-13982
▁Anstieg	-13983
▁Geschwindigkeit	-13984
▁Automat	-13985
▁delicious	-13986
▁genügend	-13987
▁letztendlich	-13988
alerie	-13989
▁Sterne	-13990
▁invited	-13991
▁Gerät	-13992
▁grav	-13993
▁Stutt	-13994
oul	-13995
hört	-13996
liehen	-13997
▁banking	-13998
▁Kollegin	-13999
▁Erfüllung	-14000
▁Hungarian	-14001
▁specified	-14002
ixel	-14003
▁reservations	-14004
Daten	-14005
ordnungen	-14006
▁attempts	-14007
▁weitgehend	-14008
Part	-14009
▁panoram	-14010
Aut	-14011
rim	-14012
▁Wohnung	-14013
figuration	-14014
▁trademark	-14015
▁Treat	-14016
▁doors	-14017
▁lift	-14018
▁relie	-14019
orer	-14020
Ladies	-14021
wahlen	-14022
▁forests	-14023
1/	-14024
ruppe	-14025
▁Mur	-14026
iensten	-14027
ni	-14028
▁2005,	-14029
▁Schle	-14030
▁sounds	-14031
▁Fußball	-14032
▁Positionen	-14033
Enter	-14034
etic	-14035
weilen	-14036
▁Vielen	-14037
▁murder	-14038
äßt	-14039
▁colours	-14040
▁inmitten	-14041
▁Schönheit	-14042
Each	-14043
▁Pfer	-14044
▁Kabel	-14045
▁Treib	-14046
▁Second	-14047
▁Potenzial	-14048
▁EL	-14049
▁mussten	-14050
▁savings	-14051
▁hinweg	-14052
▁herrscht	-14053
▁machte	-14054
▁EM	-14055
aders	-14056
rechter	-14057
▁Flugzeug	-14058
▁roof	-14059
spartei	-14060
▁warrant	-14061
▁überprüft	-14062
▁Cup	-14063
▁fan	-14064
achts	-14065
lined	-14066
▁root	-14067
afrika	-14068
▁Anlass	-14069
▁Islands	-14070
▁disabled	-14071
▁standing	-14072
▁scene	-14073
bildungs	-14074
▁revision	-14075
▁Verarbeitung	-14076
▁Riv	-14077
▁wohnen	-14078
▁representation	-14079
tlichen	-14080
▁acting	-14081
geschichte	-14082
▁hart	-14083
▁shap	-14084
▁Augenblick	-14085
laut	-14086
▁edge	-14087
▁Festpl	-14088
▁module	-14089
agements	-14090
effizienz	-14091
Jeder	-14092
▁erlebt	-14093
aga	-14094
▁34	-14095
hein	-14096
▁nörd	-14097
▁Freitag	-14098
▁examine	-14099
▁permitted	-14100
▁Mobile	-14101
▁enabling	-14102
▁Entlastung	-14103
▁scre	-14104
nummer	-14105
systems	-14106
▁Bulgarien	-14107
usstsein	-14108
▁Lobby	-14109
▁Ext	-14110
▁Orient	-14111
▁bridge	-14112
▁destroyed	-14113
▁Enjoy	-14114
▁Lok	-14115
▁tast	-14116
▁Dolom	-14117
▁complement	-14118
▁vorzulegen	-14119
▁gehe	-14120
6-	-14121
▁Mini	-14122
▁arguments	-14123
▁Grünen	-14124
lication	-14125
▁infr	-14126
▁glück	-14127
▁Quellen	-14128
iza	-14129
▁Vide	-14130
▁Mission	-14131
▁deutsch	-14132
▁reaction	-14133
▁entwickelte	-14134
▁ausgeb	-14135
▁Beschwer	-14136
▁constitute	-14137
▁Pen	-14138
▁Apple	-14139
▁breiten	-14140
▁burn	-14141
▁Thail	-14142
▁Einstellungen	-14143
▁Water	-14144
▁allzu	-14145
▁Kulturen	-14146
▁resource	-14147
anning	-14148
▁Monday	-14149
niveau	-14150
▁ports	-14151
luss	-14152
▁passion	-14153
▁realistic	-14154
▁Gi	-14155
▁Strasbourg	-14156
ords	-14157
▁Rab	-14158
▁Wäl	-14159
▁Reis	-14160
▁Hardware	-14161
▁Reduzierung	-14162
van	-14163
▁Bege	-14164
gart	-14165
wiegend	-14166
▁Stoffe	-14167
▁sought	-14168
itale	-14169
ounted	-14170
▁batter	-14171
▁erstmals	-14172
▁einzigart	-14173
▁investieren	-14174
zenten	-14175
▁paint	-14176
▁refers	-14177
Zunächst	-14178
▁patient	-14179
▁welcoming	-14180
ipher	-14181
▁Mitgliedschaft	-14182
▁Federation	-14183
cas	-14184
enth	-14185
ränkung	-14186
grammen	-14187
▁Charles	-14188
▁Ten	-14189
▁horse	-14190
▁religion	-14191
▁Gerechtigkeit	-14192
sbuffet	-14193
▁Wissens	-14194
▁Vorhaben	-14195
▁tend	-14196
▁Meister	-14197
▁info	-14198
▁Atlantic	-14199
▁aktive	-14200
▁Schüler	-14201
▁bekommt	-14202
derung	-14203
▁stellte	-14204
▁Rh	-14205
▁cooperate	-14206
▁reduziert	-14207
üst	-14208
▁rising	-14209
▁farming	-14210
▁freedoms	-14211
eten	-14212
werts	-14213
▁Leiden	-14214
▁twenty	-14215
▁gelingt	-14216
▁obliged	-14217
▁ähnlich	-14218
▁betreiben	-14219
▁Herbst	-14220
▁Natürlich	-14221
▁PSE	-14222
weisungen	-14223
▁festival	-14224
▁Agriculture	-14225
▁confirmation	-14226
ESCO	-14227
▁tritt	-14228
▁Praktiken	-14229
zesse	-14230
▁manual	-14231
ügigkeit	-14232
▁Übernachtung	-14233
oles	-14234
night	-14235
Applause	-14236
▁bla	-14237
▁Space	-14238
▁iPhone	-14239
scale	-14240
▁kilomet	-14241
Ste	-14242
Server	-14243
▁kreat	-14244
▁Verzöger	-14245
▁Einkommen	-14246
▁Gehminuten	-14247
isa	-14248
Like	-14249
quer	-14250
zepte	-14251
recher	-14252
Ihr	-14253
▁cul	-14254
▁japan	-14255
▁killed	-14256
▁prosperity	-14257
▁unterscheiden	-14258
zusammen	-14259
▁federal	-14260
▁erwähnen	-14261
haltigkeit	-14262
ESS	-14263
LAF	-14264
▁ju	-14265
rein	-14266
zung	-14267
▁Sav	-14268
▁diesel	-14269
▁leaves	-14270
▁Arzneimittel	-14271
▁"...	-14272
ichtung	-14273
friendly	-14274
▁zukünftigen	-14275
▁significance	-14276
jpg	-14277
sie	-14278
▁Pil	-14279
▁upper	-14280
▁unforgettable	-14281
übt	-14282
▁Nun	-14283
▁poly	-14284
ranche	-14285
▁schwe	-14286
▁tennis	-14287
▁Eingang	-14288
▁publication	-14289
Your	-14290
Mitgliedstaaten	-14291
▁Frie	-14292
▁hierbei	-14293
▁angepasst	-14294
tty	-14295
▁Pfe	-14296
▁instructions	-14297
lan	-14298
▁hill	-14299
▁Ankunft	-14300
▁municip	-14301
▁overview	-14302
▁Donnerstag	-14303
ski	-14304
Well	-14305
▁pas	-14306
opolit	-14307
▁societies	-14308
▁Korruption	-14309
▁paying	-14310
▁Content	-14311
ulse	-14312
mbuds	-14313
▁filter	-14314
▁führende	-14315
▁einzusetzen	-14316
▁empfohlen	-14317
▁Katastrophe	-14318
▁politically	-14319
▁Over	-14320
▁Image	-14321
▁wireless	-14322
▁Alger	-14323
▁Chinas	-14324
▁optimale	-14325
hlung	-14326
ricted	-14327
▁gründ	-14328
▁elector	-14329
▁versichern	-14330
:5	-14331
▁Gener	-14332
▁Textil	-14333
▁imports	-14334
▁gefallen	-14335
▁welcomed	-14336
▁Unternehmer	-14337
▁Kontakte	-14338
▁ersetzen	-14339
▁renowned	-14340
▁characters	-14341
▁Job	-14342
▁Host	-14343
▁missing	-14344
▁football	-14345
▁illegalen	-14346
▁harmonisation	-14347
▁1989	-14348
▁Edit	-14349
▁Interess	-14350
▁einbezogen	-14351
▁freundlich	-14352
Only	-14353
advant	-14354
▁Kroatien	-14355
lers	-14356
▁Mittag	-14357
▁radical	-14358
▁indirect	-14359
rome	-14360
▁tranqu	-14361
▁Entfern	-14362
▁Aben	-14363
▁Sonntag	-14364
ianischen	-14365
▁Mountain	-14366
▁vorgesehenen	-14367
emen	-14368
▁Gottes	-14369
▁gestattet	-14370
▁Gleichstellung	-14371
cu	-14372
rog	-14373
utet	-14374
▁breach	-14375
poration	-14376
Datei	-14377
▁excurs	-14378
instrument	-14379
▁dependent	-14380
▁appearance	-14381
▁rank	-14382
▁trips	-14383
▁deswegen	-14384
▁unterstreichen	-14385
▁65	-14386
Beifall	-14387
▁Saison	-14388
▁legally	-14389
open	-14390
▁könnt	-14391
▁obser	-14392
▁config	-14393
▁Schiffe	-14394
ieß	-14395
▁cleaning	-14396
▁justified	-14397
▁durchschnitt	-14398
made	-14399
▁ende	-14400
▁blind	-14401
▁homes	-14402
▁Golden	-14403
▁getragen	-14404
▁skiing	-14405
▁behaupten	-14406
▁verfügbaren	-14407
emit	-14408
▁Ägyp	-14409
▁Luxus	-14410
osa	-14411
iese	-14412
▁neighb	-14413
▁Tätigkeiten	-14414
Us	-14415
▁unn	-14416
auspiel	-14417
oubtedly	-14418
ötz	-14419
stal	-14420
▁movie	-14421
▁bedeutende	-14422
▁Erm	-14423
pfung	-14424
▁suffered	-14425
▁Professor	-14426
▁directory	-14427
▁umfassend	-14428
auschen	-14429
▁attrib	-14430
LO	-14431
▁none	-14432
▁continuous	-14433
▁PS	-14434
▁proceedings	-14435
Ferner	-14436
▁anschließend	-14437
▁begeg	-14438
▁retail	-14439
▁beendet	-14440
▁remained	-14441
▁relative	-14442
▁LateRooms	-14443
▁negotiating	-14444
ulous	-14445
▁lunch	-14446
▁Rio	-14447
▁Metro	-14448
▁ergänzen	-14449
▁kontaktieren	-14450
▁fans	-14451
ureich	-14452
▁Lounge	-14453
▁surve	-14454
▁manche	-14455
TC	-14456
▁mi	-14457
▁Another	-14458
▁Prozesse	-14459
ssen	-14460
▁hilf	-14461
▁vollen	-14462
sprachen	-14463
▁mitteilen	-14464
wei	-14465
▁konkret	-14466
▁fu	-14467
▁Alltag	-14468
Port	-14469
▁fas	-14470
▁ansprechen	-14471
8-	-14472
▁Jung	-14473
▁Marke	-14474
▁entreprene	-14475
▁beeinträcht	-14476
▁AND	-14477
▁looked	-14478
▁referendum	-14479
▁specialist	-14480
illed	-14481
▁hast	-14482
▁Existenz	-14483
▁preventing	-14484
▁supervision	-14485
öffnung	-14486
▁Auditors	-14487
▁künftige	-14488
▁Veränderung	-14489
▁konzentriert	-14490
▁Secretary	-14491
▁contributed	-14492
baus	-14493
▁videos	-14494
▁Schwimm	-14495
Commissioner	-14496
▁spezifische	-14497
rik	-14498
äne	-14499
annter	-14500
▁directed	-14501
▁allocated	-14502
ätzt	-14503
emark	-14504
▁voran	-14505
▁surely	-14506
▁Allerdings	-14507
▁konfrontiert	-14508
iale	-14509
▁Wal	-14510
▁carr	-14511
▁Eurozone	-14512
DI	-14513
har	-14514
▁55	-14515
▁Bett	-14516
▁Dort	-14517
▁Sachen	-14518
▁Stockholm	-14519
▁Situationen	-14520
▁Nam	-14521
ugang	-14522
▁Klasse	-14523
cribe	-14524
▁Ebenen	-14525
▁Vorgehens	-14526
▁everybody	-14527
onst	-14528
▁Umsatz	-14529
▁Polit	-14530
67	-14531
Je	-14532
abs	-14533
gner	-14534
weich	-14535
▁größeres	-14536
▁complicated	-14537
▁disadvant	-14538
▁langfristige	-14539
▁geraten	-14540
▁verteilt	-14541
"".	-14542
▁Plattform	-14543
▁experim	-14544
▁Weiteren	-14545
▁welcomes	-14546
drich	-14547
drückt	-14548
fernen	-14549
cession	-14550
▁hervorgehoben	-14551
Room	-14552
▁clubs	-14553
▁herum	-14554
▁teile	-14555
▁beings	-14556
▁hardly	-14557
▁sharing	-14558
▁Socialist	-14559
▁abstimmen	-14560
technologie	-14561
▁30.	-14562
▁offene	-14563
▁forthcoming	-14564
rifft	-14565
▁Millenn	-14566
grenze	-14567
▁manip	-14568
▁Erlebnis	-14569
▁bisherigen	-14570
Che	-14571
irs	-14572
▁Event	-14573
▁amenities	-14574
▁Ablehnung	-14575
▁hospitality	-14576
herstellung	-14577
▁Widerspruch	-14578
kultur	-14579
▁lieber	-14580
pay	-14581
▁asp	-14582
nimmt	-14583
ammelt	-14584
▁Freizügigkeit	-14585
outs	-14586
Under	-14587
burgh	-14588
▁Klaus	-14589
▁enabled	-14590
▁eat	-14591
▁cuts	-14592
▁parameters	-14593
▁AB	-14594
▁wellness	-14595
verwaltung	-14596
ICH	-14597
kapaz	-14598
▁checks	-14599
▁movements	-14600
zuschließen	-14601
▁Perspektive	-14602
▁unterzeichnet	-14603
iller	-14604
▁Gefäng	-14605
▁Latein	-14606
▁begrenzt	-14607
▁gebrauch	-14608
immers	-14609
▁erstre	-14610
▁firmly	-14611
mitglieder	-14612
▁vorgeschlagene	-14613
ärten	-14614
garten	-14615
▁Common	-14616
▁Funktions	-14617
▁Widerstand	-14618
▁compe	-14619
▁realise	-14620
▁tables	-14621
65	-14622
▁Urlaubs	-14623
▁Rückkehr	-14624
usch	-14625
seite	-14626
politische	-14627
▁unterliegen	-14628
▁1991	-14629
▁genere	-14630
▁Fahrzeuge	-14631
▁Inner	-14632
Fr	-14633
Find	-14634
▁defe	-14635
▁Finland	-14636
▁geprägt	-14637
▁originally	-14638
▁cells	-14639
▁Wähler	-14640
▁museums	-14641
▁Betten	-14642
▁indicate	-14643
ungssystem	-14644
▁Haushaltsplan	-14645
▁Rod	-14646
▁enterprise	-14647
pfen	-14648
ATION	-14649
▁rück	-14650
▁Catal	-14651
▁juris	-14652
▁simultane	-14653
▁studio	-14654
▁Planeten	-14655
▁romantic	-14656
▁Fahrt	-14657
▁Zürich	-14658
istischer	-14659
plans	-14660
ugt	-14661
Mark	-14662
riebe	-14663
▁pharm	-14664
ugoslaw	-14665
▁Ruf	-14666
abet	-14667
osing	-14668
betten	-14669
Entwick	-14670
iversary	-14671
▁Consult	-14672
▁programming	-14673
▁cancell	-14674
▁Passwort	-14675
uum	-14676
ypen	-14677
▁Porto	-14678
▁Vorder	-14679
▁Brasilien	-14680
▁explained	-14681
bestimmungen	-14682
▁personenbezogen	-14683
▁introducing	-14684
greg	-14685
▁Attra	-14686
▁absor	-14687
▁ergibt	-14688
ijk	-14689
eschäd	-14690
▁judge	-14691
spartner	-14692
▁Präsent	-14693
▁acknowled	-14694
ußt	-14695
▁Belgien	-14696
▁barriers	-14697
▁Dres	-14698
▁unzureich	-14699
▁Playa	-14700
ifferenz	-14701
▁Ausflüge	-14702
▁ausgehen	-14703
▁recognized	-14704
▁herunterladen	-14705
▁Ly	-14706
roc	-14707
▁Armee	-14708
▁ordinary	-14709
▁vessels	-14710
ji	-14711
Press	-14712
▁Vereinfach	-14713
▁Abschaffung	-14714
▁Abfall	-14715
44	-14716
▁internen	-14717
bul	-14718
▁ang	-14719
▁Sammlung	-14720
▁Aufsichts	-14721
eitigung	-14722
Wo	-14723
▁Artik	-14724
▁Allianz	-14725
Zimmer	-14726
▁songs	-14727
▁UNESCO	-14728
▁angest	-14729
mot	-14730
hyth	-14731
▁Venice	-14732
▁Volkes	-14733
▁Stability	-14734
▁eingegangen	-14735
▁deserv	-14736
staatlichen	-14737
▁hes	-14738
▁finanziert	-14739
▁95	-14740
conf	-14741
▁Distr	-14742
▁ere	-14743
unruh	-14744
▁tree	-14745
▁Domin	-14746
▁errors	-14747
▁menschliche	-14748
▁recy	-14749
▁Geburt	-14750
▁showed	-14751
▁langfristig	-14752
opes	-14753
obody	-14754
austausch	-14755
▁productivity	-14756
▁transmission	-14757
▁obstacles	-14758
öch	-14759
▁Vort	-14760
▁calm	-14761
spolit	-14762
rolling	-14763
▁schlagen	-14764
▁hochwertige	-14765
▁Vom	-14766
▁anhand	-14767
▁Made	-14768
▁hearing	-14769
▁therap	-14770
▁aufgebaut	-14771
▁MB	-14772
uage	-14773
▁Kreis	-14774
ophistic	-14775
▁remarks	-14776
▁angenehm	-14777
run	-14778
▁behoben	-14779
▁zukünftige	-14780
Staaten	-14781
▁sogenannten	-14782
Any	-14783
atin	-14784
▁collected	-14785
dy	-14786
outique	-14787
▁Tourism	-14788
▁enthaltenen	-14789
▁Sn	-14790
▁Berliner	-14791
▁Set	-14792
▁Poly	-14793
▁saved	-14794
▁exclusion	-14795
▁Game	-14796
smoking	-14797
▁combine	-14798
▁Miß	-14799
▁Fein	-14800
▁fees	-14801
▁amazing	-14802
▁gerichtet	-14803
▁Resolution	-14804
▁umfangreiche	-14805
▁militärischen	-14806
▁vereinbart	-14807
▁festzulegen	-14808
▁Volksgesundheit	-14809
▁MA	-14810
Most	-14811
coun	-14812
grunde	-14813
▁Frist	-14814
▁superior	-14815
▁anzuzeigen	-14816
▁Cub	-14817
▁Oste	-14818
zahlen	-14819
▁Spann	-14820
▁endorse	-14821
▁imagine	-14822
▁rechten	-14823
▁Stoff	-14824
▁Americans	-14825
▁EZB	-14826
▁Two	-14827
▁shar	-14828
Ebenso	-14829
▁Suiten	-14830
▁modules	-14831
▁läßt	-14832
▁investigation	-14833
[...]
